{
  "version": "1.0",
  "truncation": null,
  "padding": null,
  "added_tokens": [
    {
      "id": 0,
      "content": "[PAD]",
      "single_word": false,
      "lstrip": false,
      "rstrip": false,
      "normalized": false,
      "special": true
    },
    {
      "id": 1,
      "content": "[UNK]",
      "single_word": false,
      "lstrip": false,
      "rstrip": false,
      "normalized": false,
      "special": true
    },
    {
      "id": 2,
      "content": "[CLS]",
      "single_word": false,
      "lstrip": false,
      "rstrip": false,
      "normalized": false,
      "special": true
    },
    {
      "id": 3,
      "content": "[SEP]",
      "single_word": false,
      "lstrip": false,
      "rstrip": false,
      "normalized": false,
      "special": true
    },
    {
      "id": 4,
      "content": "[MASK]",
      "single_word": false,
      "lstrip": false,
      "rstrip": false,
      "normalized": false,
      "special": true
    }
  ],
  "normalizer": {
    "type": "Sequence",
    "normalizers": [
      {
        "type": "NFKC"
      },
      {
        "type": "BertNormalizer",
        "clean_text": true,
        "handle_chinese_chars": true,
        "strip_accents": null,
        "lowercase": false
      }
    ]
  },
  "pre_tokenizer": {
    "type": "Whitespace"
  },
  "post_processor": {
    "type": "TemplateProcessing",
    "single": [
      {
        "SpecialToken": {
          "id": "[CLS]",
          "type_id": 0
        }
      },
      {
        "Sequence": {
          "id": "A",
          "type_id": 0
        }
      },
      {
        "SpecialToken": {
          "id": "[SEP]",
          "type_id": 0
        }
      }
    ],
    "pair": [
      {
        "SpecialToken": {
          "id": "[CLS]",
          "type_id": 0
        }
      },
      {
        "Sequence": {
          "id": "A",
          "type_id": 0
        }
      },
      {
        "SpecialToken": {
          "id": "[SEP]",
          "type_id": 0
        }
      },
      {
        "Sequence": {
          "id": "B",
          "type_id": 0
        }
      },
      {
        "SpecialToken": {
          "id": "[SEP]",
          "type_id": 0
        }
      }
    ],
    "special_tokens": {
      "[CLS]": {
        "id": "[CLS]",
        "ids": [
          2
        ],
        "tokens": [
          "[CLS]"
        ]
      },
      "[SEP]": {
        "id": "[SEP]",
        "ids": [
          3
        ],
        "tokens": [
          "[SEP]"
        ]
      }
    }
  },
  "decoder": {
    "type": "BPEDecoder",
    "suffix": "</w>"
  },
  "model": {
    "type": "BPE",
    "dropout": null,
    "unk_token": "[UNK]",
    "continuing_subword_prefix": null,
    "end_of_word_suffix": "</w>",
    "fuse_unk": false,
    "byte_fallback": false,
    "ignore_merges": false,
    "vocab": {
      "[PAD]": 0,
      "[UNK]": 1,
      "[CLS]": 2,
      "[SEP]": 3,
      "[MASK]": 4,
      "!": 5,
      "\"": 6,
      "#": 7,
      "$": 8,
      "%": 9,
      "&": 10,
      "'": 11,
      "(": 12,
      ")": 13,
      "*": 14,
      "+": 15,
      ",": 16,
      "-": 17,
      ".": 18,
      "/": 19,
      "0": 20,
      "1": 21,
      "2": 22,
      "3": 23,
      "4": 24,
      "5": 25,
      "6": 26,
      "7": 27,
      "8": 28,
      "9": 29,
      ":": 30,
      ";": 31,
      "<": 32,
      "=": 33,
      ">": 34,
      "?": 35,
      "@": 36,
      "A": 37,
      "B": 38,
      "C": 39,
      "D": 40,
      "E": 41,
      "F": 42,
      "G": 43,
      "H": 44,
      "I": 45,
      "J": 46,
      "K": 47,
      "L": 48,
      "M": 49,
      "N": 50,
      "O": 51,
      "P": 52,
      "Q": 53,
      "R": 54,
      "S": 55,
      "T": 56,
      "U": 57,
      "V": 58,
      "W": 59,
      "X": 60,
      "Y": 61,
      "Z": 62,
      "[": 63,
      "\\": 64,
      "]": 65,
      "^": 66,
      "_": 67,
      "`": 68,
      "a": 69,
      "b": 70,
      "c": 71,
      "d": 72,
      "e": 73,
      "f": 74,
      "g": 75,
      "h": 76,
      "i": 77,
      "j": 78,
      "k": 79,
      "l": 80,
      "m": 81,
      "n": 82,
      "o": 83,
      "p": 84,
      "q": 85,
      "r": 86,
      "s": 87,
      "t": 88,
      "u": 89,
      "v": 90,
      "w": 91,
      "x": 92,
      "y": 93,
      "z": 94,
      "{": 95,
      "|": 96,
      "}": 97,
      "~": 98,
      "¡": 99,
      "£": 100,
      "¥": 101,
      "§": 102,
      "©": 103,
      "«": 104,
      "¬": 105,
      "®": 106,
      "°": 107,
      "±": 108,
      "·": 109,
      "»": 110,
      "¿": 111,
      "À": 112,
      "Á": 113,
      "Å": 114,
      "Ç": 115,
      "É": 116,
      "Ë": 117,
      "Ö": 118,
      "×": 119,
      "Ø": 120,
      "Ú": 121,
      "Ü": 122,
      "ß": 123,
      "à": 124,
      "á": 125,
      "â": 126,
      "ã": 127,
      "ä": 128,
      "å": 129,
      "æ": 130,
      "ç": 131,
      "è": 132,
      "é": 133,
      "ê": 134,
      "ë": 135,
      "ì": 136,
      "í": 137,
      "î": 138,
      "ï": 139,
      "ð": 140,
      "ñ": 141,
      "ò": 142,
      "ó": 143,
      "ô": 144,
      "ö": 145,
      "÷": 146,
      "ø": 147,
      "ù": 148,
      "ú": 149,
      "û": 150,
      "ü": 151,
      "ý": 152,
      "Ā": 153,
      "ā": 154,
      "ă": 155,
      "ą": 156,
      "ć": 157,
      "Č": 158,
      "č": 159,
      "ē": 160,
      "ę": 161,
      "ě": 162,
      "ğ": 163,
      "Ĥ": 164,
      "ħ": 165,
      "ī": 166,
      "ĭ": 167,
      "İ": 168,
      "ı": 169,
      "ĵ": 170,
      "ļ": 171,
      "ľ": 172,
      "Ł": 173,
      "ł": 174,
      "ń": 175,
      "ŋ": 176,
      "Ō": 177,
      "ō": 178,
      "ŏ": 179,
      "ő": 180,
      "œ": 181,
      "ř": 182,
      "Ś": 183,
      "ś": 184,
      "Ş": 185,
      "ş": 186,
      "Š": 187,
      "š": 188,
      "ţ": 189,
      "ū": 190,
      "ů": 191,
      "ŷ": 192,
      "ż": 193,
      "ž": 194,
      "ư": 195,
      "ǎ": 196,
      "ǐ": 197,
      "ǒ": 198,
      "ǔ": 199,
      "ș": 200,
      "ț": 201,
      "Ȳ": 202,
      "ȳ": 203,
      "ɑ": 204,
      "ɔ": 205,
      "ɕ": 206,
      "ə": 207,
      "ɛ": 208,
      "ɪ": 209,
      "ɯ": 210,
      "ʃ": 211,
      "ʌ": 212,
      "ʑ": 213,
      "ʕ": 214,
      "ʹ": 215,
      "ʻ": 216,
      "ʿ": 217,
      "ˈ": 218,
      "ː": 219,
      "́": 220,
      "̂": 221,
      "̃": 222,
      "̄": 223,
      "̅": 224,
      "̇": 225,
      "̍": 226,
      "̝": 227,
      "Έ": 228,
      "Α": 229,
      "Γ": 230,
      "Δ": 231,
      "Θ": 232,
      "Λ": 233,
      "Ξ": 234,
      "Π": 235,
      "Σ": 236,
      "Τ": 237,
      "Φ": 238,
      "Χ": 239,
      "Ψ": 240,
      "Ω": 241,
      "ά": 242,
      "έ": 243,
      "ή": 244,
      "ί": 245,
      "α": 246,
      "β": 247,
      "γ": 248,
      "δ": 249,
      "ε": 250,
      "ζ": 251,
      "η": 252,
      "θ": 253,
      "ι": 254,
      "κ": 255,
      "λ": 256,
      "μ": 257,
      "ν": 258,
      "ξ": 259,
      "ο": 260,
      "π": 261,
      "ρ": 262,
      "ς": 263,
      "σ": 264,
      "τ": 265,
      "υ": 266,
      "φ": 267,
      "χ": 268,
      "ψ": 269,
      "ω": 270,
      "ό": 271,
      "ύ": 272,
      "ώ": 273,
      "А": 274,
      "Б": 275,
      "В": 276,
      "Д": 277,
      "Е": 278,
      "З": 279,
      "И": 280,
      "К": 281,
      "М": 282,
      "Н": 283,
      "О": 284,
      "П": 285,
      "Р": 286,
      "С": 287,
      "Т": 288,
      "У": 289,
      "Х": 290,
      "Ч": 291,
      "Ш": 292,
      "Э": 293,
      "Я": 294,
      "а": 295,
      "б": 296,
      "в": 297,
      "г": 298,
      "д": 299,
      "е": 300,
      "ж": 301,
      "з": 302,
      "и": 303,
      "й": 304,
      "к": 305,
      "л": 306,
      "м": 307,
      "н": 308,
      "о": 309,
      "п": 310,
      "р": 311,
      "с": 312,
      "т": 313,
      "у": 314,
      "ф": 315,
      "х": 316,
      "ц": 317,
      "ч": 318,
      "ш": 319,
      "щ": 320,
      "ы": 321,
      "ь": 322,
      "э": 323,
      "ю": 324,
      "я": 325,
      "ё": 326,
      "є": 327,
      "і": 328,
      "ї": 329,
      "֑": 330,
      "֔": 331,
      "֖": 332,
      "֙": 333,
      "֣": 334,
      "֤": 335,
      "֥": 336,
      "ְ": 337,
      "ִ": 338,
      "ֵ": 339,
      "ֶ": 340,
      "ַ": 341,
      "ָ": 342,
      "ֹ": 343,
      "ּ": 344,
      "ֽ": 345,
      "־": 346,
      "ׁ": 347,
      "א": 348,
      "ב": 349,
      "ד": 350,
      "ה": 351,
      "ו": 352,
      "ז": 353,
      "ח": 354,
      "י": 355,
      "ך": 356,
      "כ": 357,
      "ל": 358,
      "ם": 359,
      "מ": 360,
      "ן": 361,
      "נ": 362,
      "ס": 363,
      "ע": 364,
      "פ": 365,
      "ק": 366,
      "ר": 367,
      "ש": 368,
      "ת": 369,
      "،": 370,
      "آ": 371,
      "أ": 372,
      "إ": 373,
      "ئ": 374,
      "ا": 375,
      "ب": 376,
      "ة": 377,
      "ت": 378,
      "ث": 379,
      "ج": 380,
      "ح": 381,
      "خ": 382,
      "د": 383,
      "ذ": 384,
      "ر": 385,
      "ز": 386,
      "س": 387,
      "ش": 388,
      "ص": 389,
      "ض": 390,
      "ط": 391,
      "ظ": 392,
      "ع": 393,
      "غ": 394,
      "ف": 395,
      "ق": 396,
      "ك": 397,
      "ل": 398,
      "م": 399,
      "ن": 400,
      "ه": 401,
      "و": 402,
      "ى": 403,
      "ي": 404,
      "ً": 405,
      "ٌ": 406,
      "ٍ": 407,
      "َ": 408,
      "ُ": 409,
      "ِ": 410,
      "ّ": 411,
      "ْ": 412,
      "پ": 413,
      "چ": 414,
      "ک": 415,
      "گ": 416,
      "ں": 417,
      "ھ": 418,
      "ہ": 419,
      "ۆ": 420,
      "ۇ": 421,
      "ی": 422,
      "ے": 423,
      "ە": 424,
      "ं": 425,
      "क": 426,
      "ग": 427,
      "च": 428,
      "ज": 429,
      "ट": 430,
      "त": 431,
      "थ": 432,
      "द": 433,
      "न": 434,
      "प": 435,
      "भ": 436,
      "म": 437,
      "य": 438,
      "र": 439,
      "ल": 440,
      "व": 441,
      "श": 442,
      "ष": 443,
      "स": 444,
      "ह": 445,
      "़": 446,
      "ा": 447,
      "ि": 448,
      "ी": 449,
      "ु": 450,
      "े": 451,
      "ै": 452,
      "ो": 453,
      "्": 454,
      "।": 455,
      "આ": 456,
      "ક": 457,
      "ટ": 458,
      "ત": 459,
      "ન": 460,
      "પ": 461,
      "ર": 462,
      "વ": 463,
      "સ": 464,
      "ા": 465,
      "ી": 466,
      "ે": 467,
      "ો": 468,
      "્": 469,
      "ம": 470,
      "்": 471,
      "ക": 472,
      "ങ": 473,
      "ന": 474,
      "യ": 475,
      "ി": 476,
      "ു": 477,
      "്": 478,
      "ሁ": 479,
      "ል": 480,
      "ማ": 481,
      "ሰ": 482,
      "ስ": 483,
      "ሷ": 484,
      "በ": 485,
      "ተ": 486,
      "ች": 487,
      "ነ": 488,
      "ን": 489,
      "አ": 490,
      "እ": 491,
      "ከ": 492,
      "ዘ": 493,
      "የ": 494,
      "ይ": 495,
      "ደ": 496,
      "ድ": 497,
      "Ꭴ": 498,
      "ក": 499,
      "ង": 500,
      "ដ": 501,
      "ន": 502,
      "យ": 503,
      "ា": 504,
      "្": 505,
      "ḥ": 506,
      "ḫ": 507,
      "ṁ": 508,
      "ṃ": 509,
      "ṇ": 510,
      "ṗ": 511,
      "ṣ": 512,
      "ṫ": 513,
      "ṭ": 514,
      "ẋ": 515,
      "ọ": 516,
      "ở": 517,
      "ἀ": 518,
      "ἄ": 519,
      "ἐ": 520,
      "ἔ": 521,
      "ἰ": 522,
      "ἴ": 523,
      "ὁ": 524,
      "ὐ": 525,
      "ὰ": 526,
      "ὶ": 527,
      "ὸ": 528,
      "ῆ": 529,
      "ῖ": 530,
      "ῦ": 531,
      "‐": 532,
      "–": 533,
      "—": 534,
      "‘": 535,
      "’": 536,
      "“": 537,
      "”": 538,
      "„": 539,
      "•": 540,
      "′": 541,
      "⁄": 542,
      "€": 543,
      "₹": 544,
      "⃑": 545,
      "⃗": 546,
      "⃣": 547,
      "←": 548,
      "↑": 549,
      "→": 550,
      "↓": 551,
      "↔": 552,
      "↦": 553,
      "⇌": 554,
      "⇒": 555,
      "⇔": 556,
      "∀": 557,
      "∂": 558,
      "∃": 559,
      "∅": 560,
      "∆": 561,
      "∇": 562,
      "∈": 563,
      "∉": 564,
      "∎": 565,
      "∏": 566,
      "∑": 567,
      "−": 568,
      "∓": 569,
      "∕": 570,
      "∖": 571,
      "∗": 572,
      "∘": 573,
      "√": 574,
      "∛": 575,
      "∜": 576,
      "∝": 577,
      "∞": 578,
      "∠": 579,
      "∣": 580,
      "∥": 581,
      "∧": 582,
      "∨": 583,
      "∩": 584,
      "∪": 585,
      "∫": 586,
      "∮": 587,
      "∴": 588,
      "∼": 589,
      "≃": 590,
      "≅": 591,
      "≈": 592,
      "≌": 593,
      "≠": 594,
      "≡": 595,
      "≤": 596,
      "≥": 597,
      "⊂": 598,
      "⊆": 599,
      "⊇": 600,
      "⊔": 601,
      "⊕": 602,
      "⊗": 603,
      "⊢": 604,
      "⊤": 605,
      "⊥": 606,
      "⋂": 607,
      "⋃": 608,
      "⋄": 609,
      "⋅": 610,
      "⋯": 611,
      "⌈": 612,
      "⌉": 613,
      "⌊": 614,
      "⌋": 615,
      "⌒": 616,
      "⎛": 617,
      "⎝": 618,
      "⎞": 619,
      "⎠": 620,
      "⎡": 621,
      "⎢": 622,
      "⎣": 623,
      "⎤": 624,
      "⎥": 625,
      "⎦": 626,
      "⎧": 627,
      "⎨": 628,
      "⎩": 629,
      "⏟": 630,
      "⏳": 631,
      "─": 632,
      "━": 633,
      "│": 634,
      "┃": 635,
      "└": 636,
      "┗": 637,
      "├": 638,
      "□": 639,
      "▲": 640,
      "△": 641,
      "▻": 642,
      "◯": 643,
      "◻": 644,
      "☀": 645,
      "☁": 646,
      "★": 647,
      "☆": 648,
      "☉": 649,
      "☑": 650,
      "♀": 651,
      "♠": 652,
      "♣": 653,
      "♥": 654,
      "♦": 655,
      "♭": 656,
      "⚖": 657,
      "⚙": 658,
      "✅": 659,
      "✊": 660,
      "✍": 661,
      "✏": 662,
      "✓": 663,
      "✨": 664,
      "❓": 665,
      "❤": 666,
      "➔": 667,
      "➡": 668,
      "⟂": 669,
      "⟨": 670,
      "⟩": 671,
      "⟶": 672,
      "⟹": 673,
      "、": 674,
      "。": 675,
      "〈": 676,
      "〉": 677,
      "《": 678,
      "》": 679,
      "「": 680,
      "」": 681,
      "あ": 682,
      "い": 683,
      "う": 684,
      "お": 685,
      "か": 686,
      "が": 687,
      "き": 688,
      "く": 689,
      "け": 690,
      "こ": 691,
      "ご": 692,
      "さ": 693,
      "し": 694,
      "す": 695,
      "せ": 696,
      "そ": 697,
      "た": 698,
      "だ": 699,
      "ち": 700,
      "っ": 701,
      "て": 702,
      "で": 703,
      "と": 704,
      "な": 705,
      "に": 706,
      "の": 707,
      "は": 708,
      "び": 709,
      "べ": 710,
      "ま": 711,
      "み": 712,
      "む": 713,
      "め": 714,
      "も": 715,
      "ょ": 716,
      "よ": 717,
      "ら": 718,
      "り": 719,
      "る": 720,
      "れ": 721,
      "を": 722,
      "ん": 723,
      "イ": 724,
      "ス": 725,
      "ト": 726,
      "パ": 727,
      "ン": 728,
      "ー": 729,
      "一": 730,
      "三": 731,
      "上": 732,
      "下": 733,
      "不": 734,
      "世": 735,
      "个": 736,
      "中": 737,
      "为": 738,
      "么": 739,
      "之": 740,
      "乐": 741,
      "也": 742,
      "书": 743,
      "了": 744,
      "事": 745,
      "于": 746,
      "五": 747,
      "人": 748,
      "什": 749,
      "今": 750,
      "他": 751,
      "代": 752,
      "以": 753,
      "们": 754,
      "会": 755,
      "体": 756,
      "你": 757,
      "來": 758,
      "便": 759,
      "個": 760,
      "們": 761,
      "做": 762,
      "元": 763,
      "先": 764,
      "出": 765,
      "分": 766,
      "利": 767,
      "到": 768,
      "前": 769,
      "功": 770,
      "动": 771,
      "去": 772,
      "友": 773,
      "双": 774,
      "只": 775,
      "可": 776,
      "吃": 777,
      "合": 778,
      "同": 779,
      "名": 780,
      "吗": 781,
      "和": 782,
      "喜": 783,
      "喝": 784,
      "嗎": 785,
      "因": 786,
      "国": 787,
      "園": 788,
      "土": 789,
      "在": 790,
      "地": 791,
      "多": 792,
      "大": 793,
      "天": 794,
      "太": 795,
      "失": 796,
      "女": 797,
      "她": 798,
      "好": 799,
      "子": 800,
      "学": 801,
      "它": 802,
      "定": 803,
      "家": 804,
      "小": 805,
      "少": 806,
      "就": 807,
      "山": 808,
      "年": 809,
      "建": 810,
      "影": 811,
      "彼": 812,
      "很": 813,
      "得": 814,
      "思": 815,
      "总": 816,
      "您": 817,
      "想": 818,
      "愛": 819,
      "感": 820,
      "成": 821,
      "我": 822,
      "打": 823,
      "持": 824,
      "提": 825,
      "文": 826,
      "新": 827,
      "方": 828,
      "旅": 829,
      "族": 830,
      "日": 831,
      "时": 832,
      "明": 833,
      "映": 834,
      "是": 835,
      "晚": 836,
      "書": 837,
      "最": 838,
      "會": 839,
      "有": 840,
      "本": 841,
      "来": 842,
      "果": 843,
      "欢": 844,
      "水": 845,
      "没": 846,
      "法": 847,
      "流": 848,
      "為": 849,
      "爱": 850,
      "片": 851,
      "牛": 852,
      "物": 853,
      "王": 854,
      "球": 855,
      "生": 856,
      "用": 857,
      "电": 858,
      "画": 859,
      "的": 860,
      "看": 861,
      "知": 862,
      "礼": 863,
      "私": 864,
      "經": 865,
      "红": 866,
      "经": 867,
      "美": 868,
      "能": 869,
      "色": 870,
      "节": 871,
      "花": 872,
      "茶": 873,
      "行": 874,
      "要": 875,
      "見": 876,
      "覚": 877,
      "覺": 878,
      "视": 879,
      "解": 880,
      "記": 881,
      "話": 882,
      "語": 883,
      "読": 884,
      "請": 885,
      "议": 886,
      "读": 887,
      "豆": 888,
      "走": 889,
      "起": 890,
      "路": 891,
      "过": 892,
      "这": 893,
      "通": 894,
      "遊": 895,
      "道": 896,
      "達": 897,
      "那": 898,
      "部": 899,
      "金": 900,
      "钱": 901,
      "问": 902,
      "阿": 903,
      "面": 904,
      "音": 905,
      "食": 906,
      "飲": 907,
      "高": 908,
      "點": 909,
      "가": 910,
      "고": 911,
      "기": 912,
      "까": 913,
      "나": 914,
      "내": 915,
      "녕": 916,
      "는": 917,
      "니": 918,
      "다": 919,
      "로": 920,
      "리": 921,
      "서": 922,
      "세": 923,
      "시": 924,
      "아": 925,
      "안": 926,
      "어": 927,
      "에": 928,
      "예": 929,
      "요": 930,
      "은": 931,
      "을": 932,
      "이": 933,
      "있": 934,
      "저": 935,
      "제": 936,
      "좋": 937,
      "주": 938,
      "지": 939,
      "하": 940,
      "한": 941,
      "해": 942,
      "︎": 943,
      "️": 944,
      "🌈": 945,
      "🌍": 946,
      "🌞": 947,
      "🌟": 948,
      "🌠": 949,
      "🌱": 950,
      "🌳": 951,
      "🌿": 952,
      "🍋": 953,
      "🍎": 954,
      "🍦": 955,
      "🍭": 956,
      "🎉": 957,
      "🎨": 958,
      "🎭": 959,
      "🎮": 960,
      "🎯": 961,
      "🎲": 962,
      "🎶": 963,
      "🐢": 964,
      "👀": 965,
      "👉": 966,
      "👍": 967,
      "💕": 968,
      "💖": 969,
      "💡": 970,
      "💪": 971,
      "💭": 972,
      "💰": 973,
      "💻": 974,
      "💼": 975,
      "📊": 976,
      "📍": 977,
      "📚": 978,
      "🔍": 979,
      "🔎": 980,
      "🔥": 981,
      "🔬": 982,
      "🔴": 983,
      "🔵": 984,
      "🕵": 985,
      "🗣": 986,
      "😃": 987,
      "😄": 988,
      "😉": 989,
      "😊": 990,
      "😎": 991,
      "😢": 992,
      "🙌": 993,
      "🚀": 994,
      "🤓": 995,
      "🤔": 996,
      "🤝": 997,
      "🤩": 998,
      "🤯": 999,
      "🦊": 1000,
      "🦋": 1001,
      "🧠": 1002,
      "🧩": 1003,
      "🧪": 1004,
      "d</w>": 1005,
      "s</w>": 1006,
      "e</w>": 1007,
      "i</w>": 1008,
      "m</w>": 1009,
      "γ</w>": 1010,
      "r</w>": 1011,
      "o</w>": 1012,
      "n</w>": 1013,
      "y</w>": 1014,
      "α</w>": 1015,
      "1</w>": 1016,
      "7</w>": 1017,
      ".</w>": 1018,
      "a</w>": 1019,
      "h</w>": 1020,
      "U</w>": 1021,
      "z</w>": 1022,
      "c</w>": 1023,
      "g</w>": 1024,
      "(</w>": 1025,
      "A</w>": 1026,
      "∇</w>": 1027,
      "/</w>": 1028,
      "2</w>": 1029,
      "T</w>": 1030,
      "\\</w>": 1031,
      "t</w>": 1032,
      "l</w>": 1033,
      "]</w>": 1034,
      "f</w>": 1035,
      "C</w>": 1036,
      "P</w>": 1037,
      "е</w>": 1038,
      "ó</w>": 1039,
      ";</w>": 1040,
      "u</w>": 1041,
      "L</w>": 1042,
      "&</w>": 1043,
      "p</w>": 1044,
      "x</w>": 1045,
      "E</w>": 1046,
      "د</w>": 1047,
      ",</w>": 1048,
      "k</w>": 1049,
      ":</w>": 1050,
      "w</w>": 1051,
      "q</w>": 1052,
      ")</w>": 1053,
      "^</w>": 1054,
      "Z</w>": 1055,
      "é</w>": 1056,
      "F</w>": 1057,
      "0</w>": 1058,
      "*</w>": 1059,
      "9</w>": 1060,
      "[</w>": 1061,
      "ő</w>": 1062,
      "ώ</w>": 1063,
      "4</w>": 1064,
      "H</w>": 1065,
      "$</w>": 1066,
      "5</w>": 1067,
      "v</w>": 1068,
      "O</w>": 1069,
      "j</w>": 1070,
      "S</w>": 1071,
      "R</w>": 1072,
      "í</w>": 1073,
      "8</w>": 1074,
      "M</w>": 1075,
      "K</w>": 1076,
      "̃</w>": 1077,
      "ε</w>": 1078,
      "b</w>": 1079,
      "6</w>": 1080,
      "Q</w>": 1081,
      "D</w>": 1082,
      "{</w>": 1083,
      "3</w>": 1084,
      "_</w>": 1085,
      "ú</w>": 1086,
      "⃣</w>": 1087,
      "ā</w>": 1088,
      "-</w>": 1089,
      "∣</w>": 1090,
      "I</w>": 1091,
      "B</w>": 1092,
      "Y</w>": 1093,
      "G</w>": 1094,
      "á</w>": 1095,
      "”</w>": 1096,
      "%</w>": 1097,
      "ん</w>": 1098,
      "J</w>": 1099,
      "—</w>": 1100,
      "∞</w>": 1101,
      "−</w>": 1102,
      "č</w>": 1103,
      "¬</w>": 1104,
      "ö</w>": 1105,
      "}</w>": 1106,
      "族</w>": 1107,
      "+</w>": 1108,
      "ن</w>": 1109,
      "←</w>": 1110,
      "β</w>": 1111,
      "N</w>": 1112,
      "√</w>": 1113,
      "<</w>": 1114,
      "ُ</w>": 1115,
      "。</w>": 1116,
      "ῖ</w>": 1117,
      "·</w>": 1118,
      "|</w>": 1119,
      "X</w>": 1120,
      "≈</w>": 1121,
      "'</w>": 1122,
      "∂</w>": 1123,
      "ē</w>": 1124,
      "ی</w>": 1125,
      "π</w>": 1126,
      "т</w>": 1127,
      "=</w>": 1128,
      "è</w>": 1129,
      "很</w>": 1130,
      "ō</w>": 1131,
      "☉</w>": 1132,
      "≤</w>": 1133,
      "φ</w>": 1134,
      "š</w>": 1135,
      "Ω</w>": 1136,
      "≠</w>": 1137,
      "ل</w>": 1138,
      "?</w>": 1139,
      "🚀</w>": 1140,
      "ط</w>": 1141,
      "W</w>": 1142,
      "м</w>": 1143,
      "‘</w>": 1144,
      "ב</w>": 1145,
      "`</w>": 1146,
      "ח</w>": 1147,
      "л</w>": 1148,
      "\"</w>": 1149,
      "什</w>": 1150,
      "></w>": 1151,
      "!</w>": 1152,
      "ך</w>": 1153,
      "本</w>": 1154,
      "💡</w>": 1155,
      "े</w>": 1156,
      "ς</w>": 1157,
      "💰</w>": 1158,
      "V</w>": 1159,
      "ង</w>": 1160,
      "ı</w>": 1161,
      "а</w>": 1162,
      "た</w>": 1163,
      "ə</w>": 1164,
      "⟩</w>": 1165,
      "х</w>": 1166,
      "🔎</w>": 1167,
      "з</w>": 1168,
      "σ</w>": 1169,
      "ć</w>": 1170,
      "△</w>": 1171,
      "#</w>": 1172,
      "ك</w>": 1173,
      "う</w>": 1174,
      "€</w>": 1175,
      "о</w>": 1176,
      "ा</w>": 1177,
      "ስ</w>": 1178,
      "θ</w>": 1179,
      "⃗</w>": 1180,
      "ω</w>": 1181,
      "⃑</w>": 1182,
      "ş</w>": 1183,
      "🧩</w>": 1184,
      "ь</w>": 1185,
      "ी</w>": 1186,
      "리</w>": 1187,
      "ü</w>": 1188,
      "ä</w>": 1189,
      "Σ</w>": 1190,
      "@</w>": 1191,
      "∀</w>": 1192,
      "ǐ</w>": 1193,
      "λ</w>": 1194,
      "∈</w>": 1195,
      "기</w>": 1196,
      "∏</w>": 1197,
      "ા</w>": 1198,
      "、</w>": 1199,
      "就</w>": 1200,
      "어</w>": 1201,
      "̄</w>": 1202,
      "ة</w>": 1203,
      "✨</w>": 1204,
      "и</w>": 1205,
      "त</w>": 1206,
      "も</w>": 1207,
      "،</w>": 1208,
      "∫</w>": 1209,
      "📍</w>": 1210,
      "요</w>": 1211,
      "は</w>": 1212,
      "à</w>": 1213,
      "э</w>": 1214,
      "은</w>": 1215,
      "ν</w>": 1216,
      "ŏ</w>": 1217,
      "⎠</w>": 1218,
      "у</w>": 1219,
      "ì</w>": 1220,
      "–</w>": 1221,
      "ç</w>": 1222,
      "知</w>": 1223,
      "~</w>": 1224,
      "§</w>": 1225,
      "ή</w>": 1226,
      "र</w>": 1227,
      "î</w>": 1228,
      "ם</w>": 1229,
      "י</w>": 1230,
      "ɪ</w>": 1231,
      "ٌ</w>": 1232,
      "∝</w>": 1233,
      "♀</w>": 1234,
      "⎧</w>": 1235,
      "ا</w>": 1236,
      "Х</w>": 1237,
      "∩</w>": 1238,
      "➡</w>": 1239,
      "ī</w>": 1240,
      "ě</w>": 1241,
      "̅</w>": 1242,
      "∑</w>": 1243,
      "ю</w>": 1244,
      "ʌ</w>": 1245,
      "ū</w>": 1246,
      "я</w>": 1247,
      "₹</w>": 1248,
      "🌱</w>": 1249,
      "⌊</w>": 1250,
      "ː</w>": 1251,
      "🍎</w>": 1252,
      "の</w>": 1253,
      "ι</w>": 1254,
      "ह</w>": 1255,
      "å</w>": 1256,
      "А</w>": 1257,
      "는</w>": 1258,
      "∘</w>": 1259,
      "見</w>": 1260,
      "ה</w>": 1261,
      "す</w>": 1262,
      "之</w>": 1263,
      "니</w>": 1264,
      "μ</w>": 1265,
      "解</w>": 1266,
      "ἰ</w>": 1267,
      "ר</w>": 1268,
      "′</w>": 1269,
      "🍦</w>": 1270,
      "ו</w>": 1271,
      "р</w>": 1272,
      "国</w>": 1273,
      "س</w>": 1274,
      "ئ</w>": 1275,
      "υ</w>": 1276,
      "й</w>": 1277,
      "💕</w>": 1278,
      "⎥</w>": 1279,
      "±</w>": 1280,
      "钱</w>": 1281,
      "‐</w>": 1282,
      "ξ</w>": 1283,
      "ǔ</w>": 1284,
      "¡</w>": 1285,
      "🧠</w>": 1286,
      "œ</w>": 1287,
      "М</w>": 1288,
      "і</w>": 1289,
      "∎</w>": 1290,
      "个</w>": 1291,
      "👍</w>": 1292,
      "ን</w>": 1293,
      "ं</w>": 1294,
      "今</w>": 1295,
      "Λ</w>": 1296,
      "⊆</w>": 1297,
      "🎉</w>": 1298,
      "к</w>": 1299,
      "ё</w>": 1300,
      "🌈</w>": 1301,
      "せ</w>": 1302,
      "ە</w>": 1303,
      "ت</w>": 1304,
      "🔬</w>": 1305,
      "ら</w>": 1306,
      "ي</w>": 1307,
      "∠</w>": 1308,
      "п</w>": 1309,
      "ְ</w>": 1310,
      "다</w>": 1311,
      "ے</w>": 1312,
      "א</w>": 1313,
      "ọ</w>": 1314,
      "ṃ</w>": 1315,
      "で</w>": 1316,
      "⊥</w>": 1317,
      "ી</w>": 1318,
      "с</w>": 1319,
      "思</w>": 1320,
      "こ</w>": 1321,
      "ሁ</w>": 1322,
      "η</w>": 1323,
      "ρ</w>": 1324,
      "É</w>": 1325,
      "̝</w>": 1326,
      "ă</w>": 1327,
      "×</w>": 1328,
      "해</w>": 1329,
      "ł</w>": 1330,
      "ب</w>": 1331,
      "̂</w>": 1332,
      "ô</w>": 1333,
      "生</w>": 1334,
      "•</w>": 1335,
      "ğ</w>": 1336,
      "を</w>": 1337,
      "↔</w>": 1338,
      "’</w>": 1339,
      "り</w>": 1340,
      "ʕ</w>": 1341,
      "⎛</w>": 1342,
      "ĭ</w>": 1343,
      "画</w>": 1344,
      "請</w>": 1345,
      "κ</w>": 1346,
      "于</w>": 1347,
      "ン</w>": 1348,
      "ે</w>": 1349,
      "ḥ</w>": 1350,
      "🧪</w>": 1351,
      "Φ</w>": 1352,
      "£</w>": 1353,
      "😊</w>": 1354,
      "我</w>": 1355,
      "吗</w>": 1356,
      "⎣</w>": 1357,
      "🤓</w>": 1358,
      "서</w>": 1359,
      "ɑ</w>": 1360,
      "∪</w>": 1361,
      "н</w>": 1362,
      "ر</w>": 1363,
      "τ</w>": 1364,
      "∥</w>": 1365,
      "에</w>": 1366,
      "☀</w>": 1367,
      "ट</w>": 1368,
      "ع</w>": 1369,
      "お</w>": 1370,
      "δ</w>": 1371,
      "∼</w>": 1372,
      "⊗</w>": 1373,
      "م</w>": 1374,
      "ת</w>": 1375,
      "⟂</w>": 1376,
      "ِ</w>": 1377,
      "い</w>": 1378,
      "≌</w>": 1379,
      "❤</w>": 1380,
      "ê</w>": 1381,
      "֙</w>": 1382,
      "大</w>": 1383,
      "💼</w>": 1384,
      "한</w>": 1385,
      "⎨</w>": 1386,
      "─</w>": 1387,
      "ї</w>": 1388,
      "ሷ</w>": 1389,
      "て</w>": 1390,
      "क</w>": 1391,
      "⋅</w>": 1392,
      "ָ</w>": 1393,
      "そ</w>": 1394,
      "ご</w>": 1395,
      "Χ</w>": 1396,
      "る</w>": 1397,
      "À</w>": 1398,
      "∨</w>": 1399,
      "ŋ</w>": 1400,
      "°</w>": 1401,
      "प</w>": 1402,
      "¿</w>": 1403,
      "ǎ</w>": 1404,
      "ο</w>": 1405,
      "动</w>": 1406,
      "을</w>": 1407,
      "び</w>": 1408,
      "豆</w>": 1409,
      "⌋</w>": 1410,
      "Δ</w>": 1411,
      "́</w>": 1412,
      "य</w>": 1413,
      "َ</w>": 1414,
      "没</w>": 1415,
      "्</w>": 1416,
      "ψ</w>": 1417,
      "〉</w>": 1418,
      "→</w>": 1419,
      "∕</w>": 1420,
      "Γ</w>": 1421,
      "מ</w>": 1422,
      "ً</w>": 1423,
      "ὁ</w>": 1424,
      "저</w>": 1425,
      "ح</w>": 1426,
      "로</w>": 1427,
      "न</w>": 1428,
      "까</w>": 1429,
      "ό</w>": 1430,
      "ở</w>": 1431,
      "⊔</w>": 1432,
      "ù</w>": 1433,
      "⊇</w>": 1434,
      "ल</w>": 1435,
      "ò</w>": 1436,
      "的</w>": 1437,
      "ὸ</w>": 1438,
      "고</w>": 1439,
      "✅</w>": 1440,
      "ë</w>": 1441,
      "经</w>": 1442,
      "◻</w>": 1443,
      "∛</w>": 1444,
      "в</w>": 1445,
      "ማ</w>": 1446,
      "👉</w>": 1447,
      "ž</w>": 1448,
      "🤔</w>": 1449,
      "語</w>": 1450,
      "∃</w>": 1451,
      "と</w>": 1452,
      "Ψ</w>": 1453,
      "ق</w>": 1454,
      "文</w>": 1455,
      "♦</w>": 1456,
      "ῦ</w>": 1457,
      "©</w>": 1458,
      "ں</w>": 1459,
      "ہ</w>": 1460,
      "話</w>": 1461,
      "在</w>": 1462,
      "⋄</w>": 1463,
      "⋃</w>": 1464,
      "ы</w>": 1465,
      "だ</w>": 1466,
      "“</w>": 1467,
      "ɔ</w>": 1468,
      "れ</w>": 1469,
      "🎨</w>": 1470,
      "≥</w>": 1471,
      "面</w>": 1472,
      "🎮</w>": 1473,
      "▲</w>": 1474,
      "欢</w>": 1475,
      "飲</w>": 1476,
      "ه</w>": 1477,
      "⌈</w>": 1478,
      "Ş</w>": 1479,
      "â</w>": 1480,
      "ى</w>": 1481,
      "∧</w>": 1482,
      "ά</w>": 1483,
      "ס</w>": 1484,
      "ش</w>": 1485,
      "✏</w>": 1486,
      "و</w>": 1487,
      "♭</w>": 1488,
      "よ</w>": 1489,
      "⊕</w>": 1490,
      "💪</w>": 1491,
      "ٍ</w>": 1492,
      "只</w>": 1493,
      "球</w>": 1494,
      "б</w>": 1495,
      "年</w>": 1496,
      "ች</w>": 1497,
      "功</w>": 1498,
      "😎</w>": 1499,
      "ל</w>": 1500,
      "王</w>": 1501,
      "æ</w>": 1502,
      "因</w>": 1503,
      "가</w>": 1504,
      "に</w>": 1505,
      "🌞</w>": 1506,
      "┃</w>": 1507,
      "⟶</w>": 1508,
      "五</w>": 1509,
      "🔍</w>": 1510,
      "ħ</w>": 1511,
      "⌉</w>": 1512,
      "用</w>": 1513,
      "ि</w>": 1514,
      "为</w>": 1515,
      "会</w>": 1516,
      "⋂</w>": 1517,
      "议</w>": 1518,
      "嗎</w>": 1519,
      "建</w>": 1520,
      "Š</w>": 1521,
      "이</w>": 1522,
      "書</w>": 1523,
      "利</w>": 1524,
      "ْ</w>": 1525,
      "д</w>": 1526,
      "∜</w>": 1527,
      "ý</w>": 1528,
      "问</w>": 1529,
      "⎡</w>": 1530,
      "ὰ</w>": 1531,
      "ן</w>": 1532,
      "🍋</w>": 1533,
      "📚</w>": 1534,
      "⋯</w>": 1535,
      "🦋</w>": 1536,
      "∆</w>": 1537,
      "❓</w>": 1538,
      "є</w>": 1539,
      "し</w>": 1540,
      "⚙</w>": 1541,
      "ã</w>": 1542,
      "ો</w>": 1543,
      "્</w>": 1544,
      "️</w>": 1545,
      "Θ</w>": 1546,
      "̇</w>": 1547,
      "太</w>": 1548,
      "◯</w>": 1549,
      "🌍</w>": 1550,
      "ȳ</w>": 1551,
      "ὶ</w>": 1552,
      "ち</w>": 1553,
      "通</w>": 1554,
      "部</w>": 1555,
      "்</w>": 1556,
      "⎤</w>": 1557,
      "家</w>": 1558,
      "ટ</w>": 1559,
      "ř</w>": 1560,
      "ज</w>": 1561,
      "一</w>": 1562,
      "ج</w>": 1563,
      "∗</w>": 1564,
      "ֹ</w>": 1565,
      "ف</w>": 1566,
      "成</w>": 1567,
      "〈</w>": 1568,
      "⌒</w>": 1569,
      "♣</w>": 1570,
      "ַ</w>": 1571,
      "旅</w>": 1572,
      "下</w>": 1573,
      "ί</w>": 1574,
      "🔥</w>": 1575,
      "な</w>": 1576,
      "≅</w>": 1577,
      "が</w>": 1578,
      "💭</w>": 1579,
      "时</w>": 1580,
      "گ</w>": 1581,
      "🎯</w>": 1582,
      "И</w>": 1583,
      "提</w>": 1584,
      "ર</w>": 1585,
      "ф</w>": 1586,
      "ˈ</w>": 1587,
      "⎦</w>": 1588,
      "📊</w>": 1589,
      "き</w>": 1590,
      "나</w>": 1591,
      "爱</w>": 1592,
      "Ö</w>": 1593,
      "「</w>": 1594,
      "可</w>": 1595,
      "제</w>": 1596,
      "ż</w>": 1597,
      "く</w>": 1598,
      "天</w>": 1599,
      "👀</w>": 1600,
      "ɯ</w>": 1601,
      "🙌</w>": 1602,
      "⟹</w>": 1603,
      "分</w>": 1604,
      "ṫ</w>": 1605,
      "🎲</w>": 1606,
      "三</w>": 1607,
      "水</w>": 1608,
      "„</w>": 1609,
      "看</w>": 1610,
      "Å</w>": 1611,
      "茶</w>": 1612,
      "影</w>": 1613,
      "च</w>": 1614,
      "☑</w>": 1615,
      "ś</w>": 1616,
      "♠</w>": 1617,
      "私</w>": 1618,
      "⎢</w>": 1619,
      "∴</w>": 1620,
      "✍</w>": 1621,
      "色</w>": 1622,
      "Ø</w>": 1623,
      "ो</w>": 1624,
      "喝</w>": 1625,
      "土</w>": 1626,
      "😃</w>": 1627,
      "名</w>": 1628,
      "ð</w>": 1629,
      "經</w>": 1630,
      "了</w>": 1631,
      "г</w>": 1632,
      "ṁ</w>": 1633,
      "代</w>": 1634,
      "ș</w>": 1635,
      "־</w>": 1636,
      "音</w>": 1637,
      "ą</w>": 1638,
      "⏟</w>": 1639,
      "پ</w>": 1640,
      "ĵ</w>": 1641,
      "Τ</w>": 1642,
      "💻</w>": 1643,
      "体</w>": 1644,
      "¥</w>": 1645,
      "您</w>": 1646,
      "↦</w>": 1647,
      "她</w>": 1648,
      "🎭</w>": 1649,
      "和</w>": 1650,
      "🔵</w>": 1651,
      "む</w>": 1652,
      "能</w>": 1653,
      "ṣ</w>": 1654,
      "⇒</w>": 1655,
      "《</w>": 1656,
      "В</w>": 1657,
      "ា</w>": 1658,
      "щ</w>": 1659,
      "چ</w>": 1660,
      "☆</w>": 1661,
      "😄</w>": 1662,
      "ል</w>": 1663,
      "Ú</w>": 1664,
      "☁</w>": 1665,
      "∓</w>": 1666,
      "Н</w>": 1667,
      "♥</w>": 1668,
      "ּ</w>": 1669,
      "»</w>": 1670,
      "⊤</w>": 1671,
      "∅</w>": 1672,
      "記</w>": 1673,
      "⟨</w>": 1674,
      "Ξ</w>": 1675,
      "节</w>": 1676,
      "내</w>": 1677,
      "先</w>": 1678,
      "∖</w>": 1679,
      "果</w>": 1680,
      "日</w>": 1681,
      "か</w>": 1682,
      "έ</w>": 1683,
      "ન</w>": 1684,
      "⏳</w>": 1685,
      "金</w>": 1686,
      "あ</w>": 1687,
      "്</w>": 1688,
      "高</w>": 1689,
      "֖</w>": 1690,
      "明</w>": 1691,
      "χ</w>": 1692,
      "ζ</w>": 1693,
      "要</w>": 1694,
      "ሰ</w>": 1695,
      "ч</w>": 1696,
      "愛</w>": 1697,
      "個</w>": 1698,
      "≡</w>": 1699,
      "🌟</w>": 1700,
      "是</w>": 1701,
      "行</w>": 1702,
      "थ</w>": 1703,
      "點</w>": 1704,
      "ṭ</w>": 1705,
      "Á</w>": 1706,
      "ز</w>": 1707,
      "為</w>": 1708,
      "⎝</w>": 1709,
      "ک</w>": 1710,
      "来</w>": 1711,
      "➔</w>": 1712,
      "出</w>": 1713,
      "🎶</w>": 1714,
      "®</w>": 1715,
      "💖</w>": 1716,
      "⇔</w>": 1717,
      "中</w>": 1718,
      "红</w>": 1719,
      "🌳</w>": 1720,
      "↓</w>": 1721,
      "ّ</w>": 1722,
      "🦊</w>": 1723,
      "ŷ</w>": 1724,
      "지</w>": 1725,
      "总</w>": 1726,
      "那</w>": 1727,
      "以</w>": 1728,
      "غ</w>": 1729,
      "少</w>": 1730,
      "ص</w>": 1731,
      "≃</w>": 1732,
      "做</w>": 1733,
      "山</w>": 1734,
      "片</w>": 1735,
      "🤝</w>": 1736,
      "它</w>": 1737,
      "Ā</w>": 1738,
      "🐢</w>": 1739,
      "友</w>": 1740,
      "法</w>": 1741,
      "前</w>": 1742,
      "便</w>": 1743,
      "最</w>": 1744,
      "阿</w>": 1745,
      "ɛ</w>": 1746,
      "ʃ</w>": 1747,
      "來</w>": 1748,
      "સ</w>": 1749,
      "ẋ</w>": 1750,
      "ይ</w>": 1751,
      "園</w>": 1752,
      "」</w>": 1753,
      "⚖</w>": 1754,
      "书</w>": 1755,
      "म</w>": 1756,
      "З</w>": 1757,
      "ض</w>": 1758,
      "视</w>": 1759,
      "け</w>": 1760,
      "小</w>": 1761,
      "∮</w>": 1762,
      "晚</w>": 1763,
      "食</w>": 1764,
      "上</w>": 1765,
      "□</w>": 1766,
      "П</w>": 1767,
      "美</w>": 1768,
      "🕵</w>": 1769,
      "យ</w>": 1770,
      "ក</w>": 1771,
      "አ</w>": 1772,
      "🤯</w>": 1773,
      "▻</w>": 1774,
      "Е</w>": 1775,
      "覚</w>": 1776,
      "ύ</w>": 1777,
      "ै</w>": 1778,
      "也</w>": 1779,
      "パ</w>": 1780,
      "Ĥ</w>": 1781,
      "⁄</w>": 1782,
      "녕</w>": 1783,
      "│</w>": 1784,
      "人</w>": 1785,
      "ׁ</w>": 1786,
      "С</w>": 1787,
      "ד</w>": 1788,
      "ു</w>": 1789,
      "ト</w>": 1790,
      "去</w>": 1791,
      "ø</w>": 1792,
      "ー</w>": 1793,
      "読</w>": 1794,
      "✓</w>": 1795,
      "⇌</w>": 1796,
      "會</w>": 1797,
      "合</w>": 1798,
      "们</w>": 1799,
      "学</w>": 1800,
      "達</w>": 1801,
      "ከ</w>": 1802,
      "映</w>": 1803,
      "︎</w>": 1804,
      "🔴</w>": 1805,
      "😢</w>": 1806,
      "ث</w>": 1807,
      "世</w>": 1808,
      "У</w>": 1809,
      "电</w>": 1810,
      "道</w>": 1811,
      "⊂</w>": 1812,
      "ß</w>": 1813,
      "好</w>": 1814,
      "🤩</w>": 1815,
      "同</w>": 1816,
      "过</w>": 1817,
      "想</w>": 1818,
      "Π</w>": 1819,
      "感</w>": 1820,
      "么</w>": 1821,
      "Ш</w>": 1822,
      "⎩</w>": 1823,
      "花</w>": 1824,
      "Ü</w>": 1825,
      "读</w>": 1826,
      "这</w>": 1827,
      "֔</w>": 1828,
      "⊢</w>": 1829,
      "你</w>": 1830,
      "★</w>": 1831,
      "喜</w>": 1832,
      "ę</w>": 1833,
      "К</w>": 1834,
      "起</w>": 1835,
      "定</w>": 1836,
      "ǒ</w>": 1837,
      "Я</w>": 1838,
      "多</w>": 1839,
      "女</w>": 1840,
      "વ</w>": 1841,
      "地</w>": 1842,
      "«</w>": 1843,
      "物</w>": 1844,
      "元</w>": 1845,
      "得</w>": 1846,
      "🌠</w>": 1847,
      "走</w>": 1848,
      "🌿</w>": 1849,
      "子</w>": 1850,
      "到</w>": 1851,
      "們</w>": 1852,
      "😉</w>": 1853,
      "⎞</w>": 1854,
      "路</w>": 1855,
      "।</w>": 1856,
      "流</w>": 1857,
      "Т</w>": 1858,
      "牛</w>": 1859,
      "Ȳ</w>": 1860,
      "ע</w>": 1861,
      "双</w>": 1862,
      "Р</w>": 1863,
      "∉</w>": 1864,
      "事</w>": 1865,
      "不</w>": 1866,
      "✊</w>": 1867,
      "彼</w>": 1868,
      "ń</w>": 1869,
      "他</w>": 1870,
      "ۇ</w>": 1871,
      "↑</w>": 1872,
      "吃</w>": 1873,
      "Э</w>": 1874,
      "О</w>": 1875,
      "覺</w>": 1876,
      "遊</w>": 1877,
      "乐</w>": 1878,
      "み</w>": 1879,
      "礼</w>": 1880,
      "Ч</w>": 1881,
      "方</w>": 1882,
      "ʿ</w>": 1883,
      "🗣</w>": 1884,
      "֑</w>": 1885,
      "さ</w>": 1886,
      "Б</w>": 1887,
      "خ</w>": 1888,
      "打</w>": 1889,
      "持</w>": 1890,
      "֥</w>": 1891,
      "÷</w>": 1892,
      "失</w>": 1893,
      "û</w>": 1894,
      "新</w>": 1895,
      "ů</w>": 1896,
      "有</w>": 1897,
      "in": 1898,
      "th": 1899,
      "ti": 1900,
      "an": 1901,
      "re": 1902,
      "ing</w>": 1903,
      "er": 1904,
      "en": 1905,
      "on": 1906,
      "es</w>": 1907,
      "ou": 1908,
      "the</w>": 1909,
      "ar": 1910,
      "or": 1911,
      "and</w>": 1912,
      "on</w>": 1913,
      "st": 1914,
      "al": 1915,
      "at": 1916,
      "er</w>": 1917,
      "it": 1918,
      "ed</w>": 1919,
      "to</w>": 1920,
      "ro": 1921,
      "al</w>": 1922,
      "si": 1923,
      "ati": 1924,
      "ac": 1925,
      "of</w>": 1926,
      "ec": 1927,
      "el": 1928,
      "om": 1929,
      "es": 1930,
      "ic": 1931,
      "or</w>": 1932,
      "di": 1933,
      "pl": 1934,
      "--": 1935,
      "in</w>": 1936,
      "il": 1937,
      "ur": 1938,
      "ol": 1939,
      "ts</w>": 1940,
      "ly</w>": 1941,
      "em": 1942,
      "con": 1943,
      "ex": 1944,
      "pro": 1945,
      "as": 1946,
      "is</w>": 1947,
      "ve</w>": 1948,
      "ons</w>": 1949,
      "un": 1950,
      "ri": 1951,
      "ab": 1952,
      "at</w>": 1953,
      "ation</w>": 1954,
      "en</w>": 1955,
      "ul": 1956,
      "ce</w>": 1957,
      "an</w>": 1958,
      "wh": 1959,
      "li": 1960,
      "res": 1961,
      "com": 1962,
      "am": 1963,
      "ev": 1964,
      "qu": 1965,
      "ap": 1966,
      "ent</w>": 1967,
      "et": 1968,
      "su": 1969,
      "id": 1970,
      "ow": 1971,
      "le</w>": 1972,
      "the": 1973,
      "ag": 1974,
      "ch": 1975,
      "us": 1976,
      "tion</w>": 1977,
      "le": 1978,
      "ad": 1979,
      "as</w>": 1980,
      "our</w>": 1981,
      "Th": 1982,
      "ers</w>": 1983,
      "for": 1984,
      "for</w>": 1985,
      "gh": 1986,
      "sh": 1987,
      "ity</w>": 1988,
      "im": 1989,
      "----": 1990,
      "po": 1991,
      "tr": 1992,
      "ci": 1993,
      "per": 1994,
      "ate</w>": 1995,
      "ith</w>": 1996,
      "lo": 1997,
      "ma": 1998,
      "that</w>": 1999,
      "is": 2000,
      "int": 2001,
      "de": 2002,
      "with</w>": 2003,
      "it</w>": 2004,
      "ding</w>": 2005,
      "ff": 2006,
      "ds</w>": 2007,
      "ent": 2008,
      "oun": 2009,
      "ov": 2010,
      "uc": 2011,
      "sp": 2012,
      "ou</w>": 2013,
      "se</w>": 2014,
      "op": 2015,
      "ents</w>": 2016,
      "tions</w>": 2017,
      "ther</w>": 2018,
      "str": 2019,
      "ations</w>": 2020,
      "your</w>": 2021,
      "ir": 2022,
      "we</w>": 2023,
      "ot": 2024,
      "ne": 2025,
      "you</w>": 2026,
      "ow</w>": 2027,
      "um": 2028,
      "se": 2029,
      "ere</w>": 2030,
      "out</w>": 2031,
      "ir</w>": 2032,
      "ure</w>": 2033,
      "ra": 2034,
      "by</w>": 2035,
      "be": 2036,
      "ess</w>": 2037,
      "enti": 2038,
      "ut": 2039,
      "are</w>": 2040,
      "ere": 2041,
      "ar</w>": 2042,
      "der": 2043,
      "ally</w>": 2044,
      "tic": 2045,
      "me": 2046,
      "vi": 2047,
      "ke</w>": 2048,
      "gr": 2049,
      "wor": 2050,
      "this</w>": 2051,
      "ine</w>": 2052,
      "ese</w>": 2053,
      "cl": 2054,
      "tim": 2055,
      "iz": 2056,
      "ess": 2057,
      "ance</w>": 2058,
      "can</w>": 2059,
      "ting</w>": 2060,
      "their</w>": 2061,
      "ing": 2062,
      "ang": 2063,
      "able</w>": 2064,
      "ies</w>": 2065,
      "sc": 2066,
      "te": 2067,
      "et</w>": 2068,
      "por": 2069,
      "pres": 2070,
      "par": 2071,
      "oo": 2072,
      "ha": 2073,
      "our": 2074,
      "ght</w>": 2075,
      "rom</w>": 2076,
      "onal</w>": 2077,
      "ta": 2078,
      "pre": 2079,
      "ver": 2080,
      "king</w>": 2081,
      "ating</w>": 2082,
      "form": 2083,
      "st</w>": 2084,
      "ay</w>": 2085,
      "ch</w>": 2086,
      "its</w>": 2087,
      "og": 2088,
      "all": 2089,
      "gh</w>": 2090,
      "from</w>": 2091,
      "all</w>": 2092,
      "ties</w>": 2093,
      "if": 2094,
      "vid": 2095,
      "sion</w>": 2096,
      "--------": 2097,
      "ous</w>": 2098,
      "ter": 2099,
      "us</w>": 2100,
      "ore</w>": 2101,
      "mo": 2102,
      "ld</w>": 2103,
      "we": 2104,
      "duc": 2105,
      "fin": 2106,
      "cre": 2107,
      "rou": 2108,
      "one</w>": 2109,
      "cont": 2110,
      "bu": 2111,
      "ence</w>": 2112,
      "ay": 2113,
      "are": 2114,
      "hi": 2115,
      "ces</w>": 2116,
      "these</w>": 2117,
      "ely</w>": 2118,
      "ep": 2119,
      "**</w>": 2120,
      "age</w>": 2121,
      "ue</w>": 2122,
      "ated</w>": 2123,
      "oc": 2124,
      "ves</w>": 2125,
      "into</w>": 2126,
      "stan": 2127,
      "tive</w>": 2128,
      "ear": 2129,
      "rec": 2130,
      "ic</w>": 2131,
      "ple</w>": 2132,
      "fac": 2133,
      "als</w>": 2134,
      "ari": 2135,
      "ter</w>": 2136,
      "be</w>": 2137,
      "comp": 2138,
      "sid": 2139,
      "ment</w>": 2140,
      "res</w>": 2141,
      "ud": 2142,
      "they</w>": 2143,
      "val": 2144,
      "sig": 2145,
      "th</w>": 2146,
      "ving</w>": 2147,
      "eng": 2148,
      "rac": 2149,
      "equ": 2150,
      "ors</w>": 2151,
      "ant</w>": 2152,
      "ile</w>": 2153,
      "comm": 2154,
      "ps</w>": 2155,
      "ith": 2156,
      "co": 2157,
      "ach</w>": 2158,
      "bet": 2159,
      "ks</w>": 2160,
      "he": 2161,
      "min": 2162,
      "eren": 2163,
      "ary</w>": 2164,
      "In": 2165,
      "som": 2166,
      "inter": 2167,
      "ill</w>": 2168,
      "fl": 2169,
      "eg": 2170,
      "under": 2171,
      "uring</w>": 2172,
      "no": 2173,
      "rel": 2174,
      "man": 2175,
      "ey</w>": 2176,
      "This</w>": 2177,
      "ong</w>": 2178,
      "ad</w>": 2179,
      "ig": 2180,
      "ical</w>": 2181,
      "ould</w>": 2182,
      "sel": 2183,
      "throu": 2184,
      "ever": 2185,
      "ect</w>": 2186,
      "so</w>": 2187,
      "fu": 2188,
      "so": 2189,
      "oll": 2190,
      "about</w>": 2191,
      "ain": 2192,
      "acc": 2193,
      "ying</w>": 2194,
      "ust</w>": 2195,
      "ser": 2196,
      "ted</w>": 2197,
      "with": 2198,
      "ility</w>": 2199,
      "inv": 2200,
      "ative</w>": 2201,
      "Con": 2202,
      "how</w>": 2203,
      "red</w>": 2204,
      "more</w>": 2205,
      "num": 2206,
      "fe": 2207,
      "ings</w>": 2208,
      "like</w>": 2209,
      "when</w>": 2210,
      "Ste": 2211,
      "sign": 2212,
      "fun": 2213,
      "ound</w>": 2214,
      "les</w>": 2215,
      "ber</w>": 2216,
      "to": 2217,
      "av": 2218,
      "sol": 2219,
      "over": 2220,
      "will</w>": 2221,
      "spec": 2222,
      ").</w>": 2223,
      "Step</w>": 2224,
      "other</w>": 2225,
      "ech": 2226,
      "ste": 2227,
      "sy": 2228,
      "tu": 2229,
      "The</w>": 2230,
      "ates</w>": 2231,
      "kn": 2232,
      "ities</w>": 2233,
      "vari": 2234,
      "clu": 2235,
      "own</w>": 2236,
      "ever</w>": 2237,
      "ement</w>": 2238,
      "such</w>": 2239,
      "time</w>": 2240,
      "tw": 2241,
      "expl": 2242,
      "sts</w>": 2243,
      "ich</w>": 2244,
      "diff": 2245,
      "Wh": 2246,
      "tiv": 2247,
      "ed": 2248,
      "gi": 2249,
      "ential</w>": 2250,
      "ween</w>": 2251,
      "enc": 2252,
      "ph": 2253,
      "ning</w>": 2254,
      "between</w>": 2255,
      "ill": 2256,
      "ful</w>": 2257,
      "oth</w>": 2258,
      "using</w>": 2259,
      "cul": 2260,
      "sing</w>": 2261,
      "over</w>": 2262,
      "In</w>": 2263,
      "tho": 2264,
      "compl": 2265,
      "end": 2266,
      "resp": 2267,
      "ob": 2268,
      "have</w>": 2269,
      "sec": 2270,
      "pe": 2271,
      "up": 2272,
      "evel": 2273,
      "do": 2274,
      "ight</w>": 2275,
      "ite</w>": 2276,
      "port": 2277,
      "cial</w>": 2278,
      "them</w>": 2279,
      "By</w>": 2280,
      "provid": 2281,
      "pri": 2282,
      "mar": 2283,
      "through</w>": 2284,
      "tly</w>": 2285,
      "which</w>": 2286,
      "where</w>": 2287,
      "func": 2288,
      "shi": 2289,
      "dec": 2290,
      "disc": 2291,
      "hel": 2292,
      "ase</w>": 2293,
      "while</w>": 2294,
      "lear": 2295,
      "ific": 2296,
      "eff": 2297,
      "echn": 2298,
      "nec": 2299,
      "up</w>": 2300,
      "differen": 2301,
      "pos": 2302,
      "cor": 2303,
      "mat": 2304,
      "iqu": 2305,
      "olog": 2306,
      "ge</w>": 2307,
      "exper": 2308,
      "ens": 2309,
      "bec": 2310,
      "exam": 2311,
      "est</w>": 2312,
      "ays</w>": 2313,
      "requ": 2314,
      "proc": 2315,
      "tran": 2316,
      "),</w>": 2317,
      "both</w>": 2318,
      "==": 2319,
      "sim": 2320,
      "ain</w>": 2321,
      "af": 2322,
      "uid": 2323,
      "loc": 2324,
      "ren": 2325,
      "el</w>": 2326,
      "appl": 2327,
      "ble</w>": 2328,
      "fore</w>": 2329,
      "any</w>": 2330,
      "standing</w>": 2331,
      "divid": 2332,
      "reg": 2333,
      "appro": 2334,
      "within</w>": 2335,
      "ten": 2336,
      "est": 2337,
      "sions</w>": 2338,
      "each</w>": 2339,
      "der</w>": 2340,
      "sti": 2341,
      "conc": 2342,
      "id</w>": 2343,
      "bo": 2344,
      "anc": 2345,
      "Ex": 2346,
      "techn": 2347,
      "valu": 2348,
      "ability</w>": 2349,
      "tical</w>": 2350,
      "tional</w>": 2351,
      "two</w>": 2352,
      "stor": 2353,
      "tur": 2354,
      "let</w>": 2355,
      "ef": 2356,
      "ty</w>": 2357,
      "ines</w>": 2358,
      "ack</w>": 2359,
      "ard</w>": 2360,
      "dis": 2361,
      "To</w>": 2362,
      "ems</w>": 2363,
      "ering</w>": 2364,
      "ame</w>": 2365,
      "del": 2366,
      "poin": 2367,
      "pec": 2368,
      "ial</w>": 2369,
      "gen": 2370,
      "ach": 2371,
      "if</w>": 2372,
      "ru": 2373,
      "but</w>": 2374,
      "ased</w>": 2375,
      "there</w>": 2376,
      "off": 2377,
      "act</w>": 2378,
      "ether</w>": 2379,
      "ved</w>": 2380,
      "br": 2381,
      "----------------": 2382,
      "chang": 2383,
      "struc": 2384,
      "ans</w>": 2385,
      "has</w>": 2386,
      "sub": 2387,
      "Ch": 2388,
      "ice</w>": 2389,
      "what</w>": 2390,
      "au": 2391,
      "ality</w>": 2392,
      "commun": 2393,
      "fi": 2394,
      "ms</w>": 2395,
      "ail": 2396,
      "bl": 2397,
      "tic</w>": 2398,
      "row": 2399,
      "self</w>": 2400,
      "posi": 2401,
      "det": 2402,
      "ut</w>": 2403,
      "fra": 2404,
      "ication</w>": 2405,
      "sk": 2406,
      "pol": 2407,
      "cur": 2408,
      "ments</w>": 2409,
      "On": 2410,
      "repres": 2411,
      "fir": 2412,
      "pow": 2413,
      "invol": 2414,
      "line</w>": 2415,
      "yp": 2416,
      "Un": 2417,
      "mul": 2418,
      "not</w>": 2419,
      "ext</w>": 2420,
      "some</w>": 2421,
      "ace</w>": 2422,
      "during</w>": 2423,
      "owever</w>": 2424,
      "go": 2425,
      "ell": 2426,
      "owing</w>": 2427,
      "day</w>": 2428,
      "than</w>": 2429,
      "adv": 2430,
      "tri": 2431,
      "sive</w>": 2432,
      "ateg": 2433,
      "produc": 2434,
      "thing</w>": 2435,
      "ards</w>": 2436,
      "low</w>": 2437,
      "prac": 2438,
      "consi": 2439,
      "aly": 2440,
      "##": 2441,
      "As</w>": 2442,
      "respon": 2443,
      "use</w>": 2444,
      "cri": 2445,
      "tion": 2446,
      "ghts</w>": 2447,
      "ures</w>": 2448,
      "sur": 2449,
      "fo": 2450,
      "of": 2451,
      "various</w>": 2452,
      "ns</w>": 2453,
      "also</w>": 2454,
      "and": 2455,
      "pa": 2456,
      "ational</w>": 2457,
      "iti": 2458,
      "app": 2459,
      "ss</w>": 2460,
      "some": 2461,
      "An": 2462,
      "ici": 2463,
      "ements</w>": 2464,
      "devel": 2465,
      "ust": 2466,
      "may</w>": 2467,
      "frac</w>": 2468,
      "pot": 2469,
      "ular</w>": 2470,
      "ows</w>": 2471,
      "sider</w>": 2472,
      "experi": 2473,
      "ind": 2474,
      "multi": 2475,
      "alleng": 2476,
      "ke": 2477,
      "aliz": 2478,
      "work</w>": 2479,
      "pr": 2480,
      "dividu": 2481,
      "end</w>": 2482,
      "dist": 2483,
      "20": 2484,
      "out": 2485,
      "fact": 2486,
      "ree</w>": 2487,
      "arg": 2488,
      "ome</w>": 2489,
      "ater</w>": 2490,
      "dat": 2491,
      "understanding</w>": 2492,
      "individu": 2493,
      "side</w>": 2494,
      "ture</w>": 2495,
      "ful": 2496,
      "stud": 2497,
      "way</w>": 2498,
      "sm": 2499,
      "Ad": 2500,
      "sup": 2501,
      "even</w>": 2502,
      "ell</w>": 2503,
      "resul": 2504,
      "AA": 2505,
      "ices</w>": 2506,
      "mem": 2507,
      "soci": 2508,
      "Now</w>": 2509,
      "ently</w>": 2510,
      "her</w>": 2511,
      "challeng": 2512,
      "ast</w>": 2513,
      "It</w>": 2514,
      "ten</w>": 2515,
      "incre": 2516,
      "loo": 2517,
      "number</w>": 2518,
      "Key</w>": 2519,
      "sum": 2520,
      "cc": 2521,
      "ses</w>": 2522,
      "bers</w>": 2523,
      "them": 2524,
      "who</w>": 2525,
      "ness</w>": 2526,
      "However</w>": 2527,
      "ast": 2528,
      "form</w>": 2529,
      "inte": 2530,
      "ways</w>": 2531,
      "ll</w>": 2532,
      "ep</w>": 2533,
      "was</w>": 2534,
      "signific": 2535,
      "ining</w>": 2536,
      "pers": 2537,
      "These</w>": 2538,
      "expres": 2539,
      "ins</w>": 2540,
      "Pro": 2541,
      "erg": 2542,
      "ross</w>": 2543,
      "those</w>": 2544,
      "ze</w>": 2545,
      "ation": 2546,
      "ship</w>": 2547,
      "ately</w>": 2548,
      "his</w>": 2549,
      "fri": 2550,
      "ics</w>": 2551,
      "inform": 2552,
      "could</w>": 2553,
      "world</w>": 2554,
      "new</w>": 2555,
      "different</w>": 2556,
      "ental</w>": 2557,
      "lim": 2558,
      "}{</w>": 2559,
      "dem": 2560,
      "identi": 2561,
      "ory</w>": 2562,
      "ge": 2563,
      "foll": 2564,
      "St": 2565,
      "prom": 2566,
      "heal": 2567,
      "jec": 2568,
      "ft</w>": 2569,
      "but": 2570,
      "tow": 2571,
      "coll": 2572,
      "thou": 2573,
      "Com": 2574,
      "ages</w>": 2575,
      "ood</w>": 2576,
      "right</w>": 2577,
      "might</w>": 2578,
      "tice</w>": 2579,
      "develop": 2580,
      "ince</w>": 2581,
      "ore": 2582,
      "mon": 2583,
      "prof": 2584,
      "analy": 2585,
      "based</w>": 2586,
      "he</w>": 2587,
      "ences</w>": 2588,
      "just</w>": 2589,
      "re</w>": 2590,
      "exc": 2591,
      "col": 2592,
      "value</w>": 2593,
      "trans": 2594,
      "then</w>": 2595,
      "ond</w>": 2596,
      "vers": 2597,
      "function</w>": 2598,
      "before</w>": 2599,
      "contin": 2600,
      "ples</w>": 2601,
      "ven</w>": 2602,
      "cap": 2603,
      "gre": 2604,
      "star": 2605,
      "sible</w>": 2606,
      "tra": 2607,
      "grap": 2608,
      "foc": 2609,
      "um</w>": 2610,
      ".,</w>": 2611,
      "For</w>": 2612,
      "typ": 2613,
      "iting</w>": 2614,
      "jo": 2615,
      "inclu": 2616,
      "data</w>": 2617,
      "ling</w>": 2618,
      "cal</w>": 2619,
      "gan": 2620,
      "help</w>": 2621,
      "import": 2622,
      "first</w>": 2623,
      "effec": 2624,
      "potential</w>": 2625,
      "my</w>": 2626,
      "ection</w>": 2627,
      "strateg": 2628,
      "sis</w>": 2629,
      "ique</w>": 2630,
      "ress</w>": 2631,
      "cal": 2632,
      "$$</w>": 2633,
      "dep": 2634,
      "maint": 2635,
      "ered</w>": 2636,
      "around</w>": 2637,
      "Let</w>": 2638,
      "ications</w>": 2639,
      "tain</w>": 2640,
      "uidel": 2641,
      "aging</w>": 2642,
      "serv": 2643,
      "ked</w>": 2644,
      "times</w>": 2645,
      "vir": 2646,
      "ature</w>": 2647,
      "En": 2648,
      "connec": 2649,
      "find</w>": 2650,
      "back</w>": 2651,
      "buil": 2652,
      "rema": 2653,
      "ound": 2654,
      "requi": 2655,
      "ub": 2656,
      "ogether</w>": 2657,
      "due</w>": 2658,
      "ade</w>": 2659,
      "arly</w>": 2660,
      "Im": 2661,
      "succ": 2662,
      "bi": 2663,
      "plo": 2664,
      "lead": 2665,
      "ther": 2666,
      "ize</w>": 2667,
      "ry</w>": 2668,
      "exp": 2669,
      "ude</w>": 2670,
      "ned</w>": 2671,
      "direc": 2672,
      "relation": 2673,
      "vie": 2674,
      "ared</w>": 2675,
      "rea": 2676,
      "make</w>": 2677,
      "oring</w>": 2678,
      "making</w>": 2679,
      "gener": 2680,
      "ex</w>": 2681,
      "clo": 2682,
      "many</w>": 2683,
      "ases</w>": 2684,
      "only</w>": 2685,
      "$\\</w>": 2686,
      "stand</w>": 2687,
      "grow": 2688,
      "Al": 2689,
      "impl": 2690,
      "sequ": 2691,
      "values</w>": 2692,
      "consider</w>": 2693,
      "impro": 2694,
      "We</w>": 2695,
      "char": 2696,
      "come</w>": 2697,
      "pi": 2698,
      "organ": 2699,
      "ology</w>": 2700,
      "point</w>": 2701,
      "less</w>": 2702,
      "{\\</w>": 2703,
      "process</w>": 2704,
      "ong": 2705,
      "hol": 2706,
      "====": 2707,
      "cer": 2708,
      "lif": 2709,
      "coun": 2710,
      "used</w>": 2711,
      "tics</w>": 2712,
      "eri": 2713,
      "mov": 2714,
      "ord": 2715,
      "fr": 2716,
      "grou": 2717,
      "pat": 2718,
      "ist": 2719,
      "ily</w>": 2720,
      "clusion</w>": 2721,
      "set</w>": 2722,
      "essential</w>": 2723,
      "ency</w>": 2724,
      "resear": 2725,
      "high": 2726,
      "esses</w>": 2727,
      "ghout</w>": 2728,
      "ack": 2729,
      "across</w>": 2730,
      "bel": 2731,
      "One</w>": 2732,
      "beg": 2733,
      "tively</w>": 2734,
      "ass": 2735,
      "would</w>": 2736,
      "den": 2737,
      "lin": 2738,
      "me</w>": 2739,
      "When</w>": 2740,
      "sch": 2741,
      "example</w>": 2742,
      "inn": 2743,
      "plan": 2744,
      "cru": 2745,
      "###</w>": 2746,
      "down</w>": 2747,
      "per</w>": 2748,
      "see": 2749,
      "ei": 2750,
      "contri": 2751,
      "together</w>": 2752,
      "integr": 2753,
      "do</w>": 2754,
      "add": 2755,
      "ources</w>": 2756,
      "meas": 2757,
      "metho": 2758,
      "Ti": 2759,
      "every</w>": 2760,
      "ends</w>": 2761,
      "concep": 2762,
      "tre": 2763,
      "complex</w>": 2764,
      "tro": 2765,
      "including</w>": 2766,
      "ution</w>": 2767,
      "nam": 2768,
      "often</w>": 2769,
      "prob": 2770,
      "shap": 2771,
      "without</w>": 2772,
      "kes</w>": 2773,
      "ditional</w>": 2774,
      "la": 2775,
      "ols</w>": 2776,
      "among</w>": 2777,
      "il</w>": 2778,
      "ide": 2779,
      "incl": 2780,
      "unique</w>": 2781,
      "need</w>": 2782,
      "deter": 2783,
      "stance</w>": 2784,
      "ise</w>": 2785,
      "towards</w>": 2786,
      "crucial</w>": 2787,
      "aining</w>": 2788,
      "zing</w>": 2789,
      "bility</w>": 2790,
      "ca": 2791,
      "being</w>": 2792,
      "necess": 2793,
      "preci": 2794,
      "medi": 2795,
      "har": 2796,
      "get</w>": 2797,
      "discus": 2798,
      "play": 2799,
      "So</w>": 2800,
      "iques</w>": 2801,
      "stead</w>": 2802,
      "des": 2803,
      "mark": 2804,
      "fully</w>": 2805,
      "insi": 2806,
      "fur": 2807,
      "agement</w>": 2808,
      "gg": 2809,
      "enh": 2810,
      "Ma": 2811,
      "portun": 2812,
      "initi": 2813,
      "numbers</w>": 2814,
      "led": 2815,
      "fam": 2816,
      "ety</w>": 2817,
      "real</w>": 2818,
      "information</w>": 2819,
      "power</w>": 2820,
      "But</w>": 2821,
      "ables</w>": 2822,
      "suppor": 2823,
      "rev": 2824,
      "comes</w>": 2825,
      "tern": 2826,
      "Guidel": 2827,
      "rang": 2828,
      "pul": 2829,
      "learning</w>": 2830,
      "inc": 2831,
      "owled": 2832,
      "ital</w>": 2833,
      "syst": 2834,
      "viron": 2835,
      "ills</w>": 2836,
      "every": 2837,
      "explore</w>": 2838,
      "upon</w>": 2839,
      "cle": 2840,
      "wr": 2841,
      "onom": 2842,
      "thers</w>": 2843,
      "ea": 2844,
      "no</w>": 2845,
      "defin": 2846,
      "ote</w>": 2847,
      "change</w>": 2848,
      "With</w>": 2849,
      "most</w>": 2850,
      "ilities</w>": 2851,
      "Re": 2852,
      "ships</w>": 2853,
      "another</w>": 2854,
      "fost": 2855,
      "must</w>": 2856,
      "If</w>": 2857,
      "verse</w>": 2858,
      "cip": 2859,
      "life</w>": 2860,
      "cour": 2861,
      "opportun": 2862,
      "along</w>": 2863,
      "usin": 2864,
      "perform": 2865,
      "ool</w>": 2866,
      "continu": 2867,
      "read": 2868,
      "ques": 2869,
      "care": 2870,
      "knowled": 2871,
      "partic": 2872,
      "oper": 2873,
      "du": 2874,
      "eting</w>": 2875,
      "ind</w>": 2876,
      "trac": 2877,
      "calcul": 2878,
      "were</w>": 2879,
      "after</w>": 2880,
      "organiz": 2881,
      "00</w>": 2882,
      "ben": 2883,
      "emp": 2884,
      "hum": 2885,
      "guid": 2886,
      "equation</w>": 2887,
      "effici": 2888,
      "ople</w>": 2889,
      "points</w>": 2890,
      "issu": 2891,
      "stem</w>": 2892,
      "hy": 2893,
      "sic</w>": 2894,
      "xim": 2895,
      "fy</w>": 2896,
      "call": 2897,
      "everal</w>": 2898,
      "ous": 2899,
      "dic": 2900,
      "throughout</w>": 2901,
      "techniques</w>": 2902,
      "ters</w>": 2903,
      "provide</w>": 2904,
      "imp": 2905,
      "further</w>": 2906,
      "They</w>": 2907,
      "ogn": 2908,
      "practic": 2909,
      "essi": 2910,
      "ingly</w>": 2911,
      "sw": 2912,
      "should</w>": 2913,
      "mer": 2914,
      "challenges</w>": 2915,
      "step": 2916,
      "ply</w>": 2917,
      "themati": 2918,
      "something</w>": 2919,
      "duction</w>": 2920,
      "sign</w>": 2921,
      "pur": 2922,
      ".\"</w>": 2923,
      "environ": 2924,
      "set": 2925,
      "forms</w>": 2926,
      "histor": 2927,
      "regar": 2928,
      "sit": 2929,
      "10</w>": 2930,
      ":**</w>": 2931,
      "met": 2932,
      "contribut": 2933,
      "sure</w>": 2934,
      "ances</w>": 2935,
      "angle</w>": 2936,
      "dy</w>": 2937,
      "am</w>": 2938,
      "ear</w>": 2939,
      "deci": 2940,
      "os": 2941,
      "infl": 2942,
      "roo": 2943,
      "comb": 2944,
      "ecting</w>": 2945,
      "proper": 2946,
      "she</w>": 2947,
      "conf": 2948,
      "abli": 2949,
      "several</w>": 2950,
      "factors</w>": 2951,
      "car": 2952,
      "take</w>": 2953,
      "cir": 2954,
      "ensure</w>": 2955,
      "others</w>": 2956,
      "understand</w>": 2957,
      "parti": 2958,
      "growth</w>": 2959,
      "role</w>": 2960,
      "sci": 2961,
      "While</w>": 2962,
      "tural</w>": 2963,
      "following</w>": 2964,
      "gu": 2965,
      "agine</w>": 2966,
      "people</w>": 2967,
      "since</w>": 2968,
      "left</w>": 2969,
      "ones</w>": 2970,
      "well</w>": 2971,
      "emplo": 2972,
      "ref": 2973,
      "had</w>": 2974,
      "busin": 2975,
      "os</w>": 2976,
      "mis": 2977,
      "ran": 2978,
      "given</w>": 2979,
      "ens</w>": 2980,
      "orig": 2981,
      "brea": 2982,
      "att": 2983,
      "ass</w>": 2984,
      "social</w>": 2985,
      "$.</w>": 2986,
      "create</w>": 2987,
      "Ap": 2988,
      "better</w>": 2989,
      "anti": 2990,
      "care</w>": 2991,
      "abor": 2992,
      "condi": 2993,
      "design": 2994,
      "three</w>": 2995,
      "steps</w>": 2996,
      "here</w>": 2997,
      "19": 2998,
      "systems</w>": 2999,
      "$,</w>": 3000,
      "represent": 3001,
      "ute</w>": 3002,
      "acy</w>": 3003,
      "izing</w>": 3004,
      "squ": 3005,
      "cent": 3006,
      "specif": 3007,
      "ample</w>": 3008,
      "actions</w>": 3009,
      "Ac": 3010,
      "ect": 3011,
      "dra": 3012,
      "overall</w>": 3013,
      "uch</w>": 3014,
      "ustom": 3015,
      "ause</w>": 3016,
      "individual</w>": 3017,
      "charac": 3018,
      "inal</w>": 3019,
      "atis": 3020,
      "rati": 3021,
      "whether</w>": 3022,
      "ustr": 3023,
      "high</w>": 3024,
      "research</w>": 3025,
      "concer": 3026,
      "thin": 3027,
      "sed</w>": 3028,
      "dies</w>": 3029,
      "ths</w>": 3030,
      "ams</w>": 3031,
      "called</w>": 3032,
      "uture</w>": 3033,
      "You</w>": 3034,
      "ism</w>": 3035,
      "skills</w>": 3036,
      "system</w>": 3037,
      "contro": 3038,
      "ously</w>": 3039,
      "positive</w>": 3040,
      "art</w>": 3041,
      "been</w>": 3042,
      "prot": 3043,
      "saf": 3044,
      "mental</w>": 3045,
      "anced</w>": 3046,
      "insights</w>": 3047,
      "personal</w>": 3048,
      "tures</w>": 3049,
      "unit</w>": 3050,
      "ven": 3051,
      "ba": 3052,
      "201": 3053,
      "Throu": 3054,
      "dam": 3055,
      "strategies</w>": 3056,
      "rul": 3057,
      "ount</w>": 3058,
      "ist</w>": 3059,
      "play</w>": 3060,
      "rest</w>": 3061,
      "prin": 3062,
      "functions</w>": 3063,
      "ically</w>": 3064,
      "neg": 3065,
      "know</w>": 3066,
      "wa": 3067,
      "mathemati": 3068,
      "phy": 3069,
      "Rem": 3070,
      "include</w>": 3071,
      "ending</w>": 3072,
      "ands</w>": 3073,
      "consist": 3074,
      "iv": 3075,
      "under</w>": 3076,
      "icate</w>": 3077,
      "experience</w>": 3078,
      "allows</w>": 3079,
      "ual</w>": 3080,
      "face</w>": 3081,
      "jour": 3082,
      "ey": 3083,
      "Tit": 3084,
      "patter": 3085,
      "atten": 3086,
      "dig": 3087,
      "same</w>": 3088,
      "knowledge</w>": 3089,
      "Here</w>": 3090,
      "your": 3091,
      "havi": 3092,
      "els</w>": 3093,
      "pose</w>": 3094,
      "op</w>": 3095,
      "lem</w>": 3096,
      "benef": 3097,
      "ants</w>": 3098,
      "ited</w>": 3099,
      "bal": 3100,
      "ris": 3101,
      "physi": 3102,
      "eds</w>": 3103,
      "light</w>": 3104,
      "aff": 3105,
      "water</w>": 3106,
      "vig": 3107,
      "igh": 3108,
      "alized</w>": 3109,
      "Title</w>": 3110,
      "because</w>": 3111,
      "valuable</w>": 3112,
      "ective</w>": 3113,
      "important</w>": 3114,
      "De": 3115,
      "graph": 3116,
      "refl": 3117,
      "certain</w>": 3118,
      "ularly</w>": 3119,
      "educ": 3120,
      "ook</w>": 3121,
      "term</w>": 3122,
      "become</w>": 3123,
      "de</w>": 3124,
      "becom": 3125,
      "associ": 3126,
      "wid": 3127,
      "preh": 3128,
      "Intro": 3129,
      "works</w>": 3130,
      "ws</w>": 3131,
      "tionally</w>": 3132,
      "onents</w>": 3133,
      "multiple</w>": 3134,
      "Me": 3135,
      "arti": 3136,
      "development</w>": 3137,
      "health</w>": 3138,
      "lit": 3139,
      "students</w>": 3140,
      "known</w>": 3141,
      "individuals</w>": 3142,
      "necessary</w>": 3143,
      "fiel": 3144,
      "ergy</w>": 3145,
      "ough</w>": 3146,
      "emb": 3147,
      "ied</w>": 3148,
      "onstr": 3149,
      "ping</w>": 3150,
      "ject</w>": 3151,
      "Fir": 3152,
      "AAAA": 3153,
      "behavi": 3154,
      "tal": 3155,
      "ili": 3156,
      "simil": 3157,
      "custom": 3158,
      "consider": 3159,
      "place</w>": 3160,
      "regarding</w>": 3161,
      "friends</w>": 3162,
      "sa": 3163,
      "And</w>": 3164,
      "opportunities</w>": 3165,
      "atures</w>": 3166,
      "yourself</w>": 3167,
      "possible</w>": 3168,
      "ears</w>": 3169,
      "war": 3170,
      "ant": 3171,
      "tivity</w>": 3172,
      "instead</w>": 3173,
      "expec": 3174,
      "alig": 3175,
      "significant</w>": 3176,
      "led</w>": 3177,
      "establi": 3178,
      "ligh": 3179,
      "case</w>": 3180,
      "Pl": 3181,
      "always</w>": 3182,
      "mi": 3183,
      "corpor": 3184,
      "How</w>": 3185,
      "ire</w>": 3186,
      "ney</w>": 3187,
      "numer": 3188,
      "sen": 3189,
      "(\\</w>": 3190,
      "atur": 3191,
      "mag": 3192,
      "common</w>": 3193,
      "ward</w>": 3194,
      "polic": 3195,
      "ur</w>": 3196,
      "equi": 3197,
      "want</w>": 3198,
      "ination</w>": 3199,
      "antly</w>": 3200,
      "future</w>": 3201,
      "ainst</w>": 3202,
      "reli": 3203,
      "idence</w>": 3204,
      "peri": 3205,
      "}}": 3206,
      "Di": 3207,
      "influ": 3208,
      "rt</w>": 3209,
      "can": 3210,
      "prog": 3211,
      "Introduction</w>": 3212,
      "ological</w>": 3213,
      "effor": 3214,
      "*:</w>": 3215,
      "resources</w>": 3216,
      "equal</w>": 3217,
      "space</w>": 3218,
      "ubli": 3219,
      "aches</w>": 3220,
      "put</w>": 3221,
      "now</w>": 3222,
      "Tips</w>": 3223,
      "ensuring</w>": 3224,
      "creating</w>": 3225,
      "demonstr": 3226,
      "happ": 3227,
      "Under": 3228,
      "table</w>": 3229,
      "specific</w>": 3230,
      "ero</w>": 3231,
      "ories</w>": 3232,
      "leg": 3233,
      "area</w>": 3234,
      "innov": 3235,
      "issues</w>": 3236,
      "minim": 3237,
      "relationships</w>": 3238,
      "against</w>": 3239,
      "see</w>": 3240,
      "ored</w>": 3241,
      "ember</w>": 3242,
      "problem</w>": 3243,
      "Your</w>": 3244,
      "More": 3245,
      "..": 3246,
      "working</w>": 3247,
      "ement": 3248,
      "Fin": 3249,
      "old</w>": 3250,
      "dev": 3251,
      "made</w>": 3252,
      "Moreover</w>": 3253,
      "ator</w>": 3254,
      "distri": 3255,
      "stand": 3256,
      "tle</w>": 3257,
      "practices</w>": 3258,
      "econom": 3259,
      "ativ": 3260,
      "shed</w>": 3261,
      "na": 3262,
      "terms</w>": 3263,
      "resi": 3264,
      "thy</w>": 3265,
      "member</w>": 3266,
      "---</w>": 3267,
      "tools</w>": 3268,
      "methods</w>": 3269,
      "optim": 3270,
      "too</w>": 3271,
      "angu": 3272,
      "sym": 3273,
      "otal</w>": 3274,
      "related</w>": 3275,
      "ifically</w>": 3276,
      "duce</w>": 3277,
      "local</w>": 3278,
      "prehen": 3279,
      "quality</w>": 3280,
      "oid</w>": 3281,
      "long</w>": 3282,
      "mean": 3283,
      "professi": 3284,
      "ditionally</w>": 3285,
      "begin</w>": 3286,
      "utions</w>": 3287,
      "ening</w>": 3288,
      "piec": 3289,
      "fa": 3290,
      "less": 3291,
      "reduc": 3292,
      "Be": 3293,
      "deep": 3294,
      "elec": 3295,
      "does</w>": 3296,
      "experiences</w>": 3297,
      "dri": 3298,
      "energy</w>": 3299,
      "asing</w>": 3300,
      "ick": 3301,
      "communication</w>": 3302,
      "comput": 3303,
      "pite</w>": 3304,
      "sty": 3305,
      "ho": 3306,
      "step</w>": 3307,
      "ish</w>": 3308,
      "aren": 3309,
      "tili": 3310,
      "action</w>": 3311,
      "results</w>": 3312,
      "practice</w>": 3313,
      "aim": 3314,
      "tives</w>": 3315,
      "means</w>": 3316,
      "hear": 3317,
      "section</w>": 3318,
      "bey": 3319,
      "dy": 3320,
      "why</w>": 3321,
      "represents</w>": 3322,
      "entr": 3323,
      "row</w>": 3324,
      "vol": 3325,
      "alu": 3326,
      "sh</w>": 3327,
      "formul": 3328,
      "involves</w>": 3329,
      "things</w>": 3330,
      "ax": 3331,
      "assi": 3332,
      "position</w>": 3333,
      "Em": 3334,
      "beyond</w>": 3335,
      "part</w>": 3336,
      "best</w>": 3337,
      "blems</w>": 3338,
      "Once</w>": 3339,
      "text</w>": 3340,
      "jects</w>": 3341,
      "mu": 3342,
      "(-</w>": 3343,
      "mine</w>": 3344,
      "leading</w>": 3345,
      "impact</w>": 3346,
      "found</w>": 3347,
      "community</w>": 3348,
      "men": 3349,
      "though</w>": 3350,
      "Res": 3351,
      "instance</w>": 3352,
      "accur": 3353,
      "fol": 3354,
      "support</w>": 3355,
      "Remember</w>": 3356,
      "princi": 3357,
      "sting</w>": 3358,
      "At</w>": 3359,
      "small</w>": 3360,
      "emo": 3361,
      "success": 3362,
      "key</w>": 3363,
      "Additionally</w>": 3364,
      "aling</w>": 3365,
      "Rec": 3366,
      "regi": 3367,
      "going</w>": 3368,
      "focus</w>": 3369,
      "ined</w>": 3370,
      "Af": 3371,
      "ats</w>": 3372,
      "not": 3373,
      "ets</w>": 3374,
      "Guidelines</w>": 3375,
      "approach</w>": 3376,
      "conditions</w>": 3377,
      "situ": 3378,
      "pati": 3379,
      "scen": 3380,
      "lines</w>": 3381,
      "much</w>": 3382,
      "changes</w>": 3383,
      "plac": 3384,
      "collabor": 3385,
      "associated</w>": 3386,
      "serve</w>": 3387,
      "diverse</w>": 3388,
      "dom": 3389,
      "achi": 3390,
      "til</w>": 3391,
      "learn</w>": 3392,
      "ove</w>": 3393,
      "view</w>": 3394,
      "tem": 3395,
      "gover": 3396,
      "oose</w>": 3397,
      "tual</w>": 3398,
      "determin": 3399,
      "ancing</w>": 3400,
      "visu": 3401,
      "reng": 3402,
      "problems</w>": 3403,
      "intere": 3404,
      "Conclusion</w>": 3405,
      "expression</w>": 3406,
      "negative</w>": 3407,
      "ches</w>": 3408,
      "look</w>": 3409,
      "ition</w>": 3410,
      "requires</w>": 3411,
      "langu": 3412,
      "aut": 3413,
      "product</w>": 3414,
      "abilities</w>": 3415,
      "open</w>": 3416,
      "group</w>": 3417,
      "zero</w>": 3418,
      "evalu": 3419,
      "recogn": 3420,
      "elements</w>": 3421,
      "Per": 3422,
      "ching</w>": 3423,
      "cho": 3424,
      "plat": 3425,
      "atives</w>": 3426,
      "exploring</w>": 3427,
      "bro": 3428,
      "circ": 3429,
      "tivi": 3430,
      "patterns</w>": 3431,
      "employ": 3432,
      "iel": 3433,
      "areas</w>": 3434,
      "journey</w>": 3435,
      "rather</w>": 3436,
      "auth": 3437,
      "natur": 3438,
      "cs</w>": 3439,
      "leng": 3440,
      "involving</w>": 3441,
      "still</w>": 3442,
      "providing</w>": 3443,
      "similar</w>": 3444,
      "transform": 3445,
      ")^</w>": 3446,
      "Through</w>": 3447,
      "ric</w>": 3448,
      "ia</w>": 3449,
      "share</w>": 3450,
      "pects</w>": 3451,
      "eth": 3452,
      "ner": 3453,
      "aspects</w>": 3454,
      "pref": 3455,
      "ators</w>": 3456,
      "lead</w>": 3457,
      "concepts</w>": 3458,
      "appreci": 3459,
      "That</w>": 3460,
      "questions</w>": 3461,
      "performance</w>": 3462,
      "original</w>": 3463,
      "bri": 3464,
      "aring</w>": 3465,
      "becomes</w>": 3466,
      "ists</w>": 3467,
      "--</w>": 3468,
      "solutions</w>": 3469,
      "frac": 3470,
      "online</w>": 3471,
      "until</w>": 3472,
      "intro": 3473,
      "ick</w>": 3474,
      "curren": 3475,
      "off</w>": 3476,
      "ower</w>": 3477,
      "sin</w>": 3478,
      "top": 3479,
      "selves</w>": 3480,
      "conver": 3481,
      "ale</w>": 3482,
      "maintain</w>": 3483,
      "publi": 3484,
      "needs</w>": 3485,
      "offer</w>": 3486,
      "dr": 3487,
      "sq": 3488,
      "remember</w>": 3489,
      "gor": 3490,
      "stitu": 3491,
      "mary</w>": 3492,
      "streng": 3493,
      "correspon": 3494,
      "iring</w>": 3495,
      "consum": 3496,
      "erials</w>": 3497,
      "cr": 3498,
      "prev": 3499,
      "avail": 3500,
      "yet</w>": 3501,
      "guide</w>": 3502,
      "sqrt</w>": 3503,
      "relationship</w>": 3504,
      "tivities</w>": 3505,
      "========": 3506,
      "result</w>": 3507,
      "tation</w>": 3508,
      "mil": 3509,
      "ming</w>": 3510,
      "To": 3511,
      "gl": 3512,
      "evels</w>": 3513,
      "incorpor": 3514,
      "cultural</w>": 3515,
      "stant</w>": 3516,
      "attention</w>": 3517,
      "simpl": 3518,
      "^{</w>": 3519,
      "After</w>": 3520,
      "conta": 3521,
      "encour": 3522,
      "design</w>": 3523,
      "invest": 3524,
      "ails</w>": 3525,
      "log": 3526,
      "lea": 3527,
      "types</w>": 3528,
      "ordin": 3529,
      "don</w>": 3530,
      "math": 3531,
      "dynam": 3532,
      "Ne": 3533,
      "hor": 3534,
      "stu": 3535,
      "}\\</w>": 3536,
      "Since</w>": 3537,
      "remains</w>": 3538,
      "particip": 3539,
      "significantly</w>": 3540,
      "comprehen": 3541,
      "depend": 3542,
      "ization</w>": 3543,
      "everyone</w>": 3544,
      "intr": 3545,
      "Understanding</w>": 3546,
      "levels</w>": 3547,
      "aw": 3548,
      "power": 3549,
      "study</w>": 3550,
      "perf": 3551,
      "Consider</w>": 3552,
      "multipl": 3553,
      "try</w>": 3554,
      "Fur": 3555,
      "appe": 3556,
      "angles</w>": 3557,
      "human</w>": 3558,
      "components</w>": 3559,
      "ver</w>": 3560,
      "fying</w>": 3561,
      "ber": 3562,
      "construc": 3563,
      "importance</w>": 3564,
      "regul": 3565,
      "principles</w>": 3566,
      "body</w>": 3567,
      "conclusion</w>": 3568,
      "via</w>": 3569,
      "appropri": 3570,
      "eti": 3571,
      "ounding</w>": 3572,
      "ars</w>": 3573,
      "Amer": 3574,
      "Americ": 3575,
      "poli": 3576,
      "The": 3577,
      "glo": 3578,
      "den</w>": 3579,
      "eded</w>": 3580,
      "size</w>": 3581,
      "deeper</w>": 3582,
      "inf": 3583,
      "work": 3584,
      "aries</w>": 3585,
      "maintaining</w>": 3586,
      "Ar": 3587,
      "asp": 3588,
      "ga": 3589,
      "ys</w>": 3590,
      "popul": 3591,
      "back": 3592,
      "ld": 3593,
      "ann": 3594,
      "sing": 3595,
      "navig": 3596,
      "access</w>": 3597,
      "distribu": 3598,
      "vect": 3599,
      "fil": 3600,
      ",\"</w>": 3601,
      "critical</w>": 3602,
      "oting</w>": 3603,
      "shared</w>": 3604,
      "relev": 3605,
      "offers</w>": 3606,
      "applications</w>": 3607,
      "order</w>": 3608,
      "hand": 3609,
      "altern": 3610,
      "sum</w>": 3611,
      "surr": 3612,
      "Imagine</w>": 3613,
      "sets</w>": 3614,
      "=\\</w>": 3615,
      "tors</w>": 3616,
      "enjo": 3617,
      "desi": 3618,
      "deriv": 3619,
      "effectively</w>": 3620,
      "mom": 3621,
      "moder": 3622,
      "Mo": 3623,
      "comfor": 3624,
      "sides</w>": 3625,
      "uses</w>": 3626,
      "decid": 3627,
      "):</w>": 3628,
      "yiel": 3629,
      "echan": 3630,
      "part": 3631,
      "First</w>": 3632,
      "stances</w>": 3633,
      "nature</w>": 3634,
      "groups</w>": 3635,
      "evel</w>": 3636,
      "ancial</w>": 3637,
      "ized</w>": 3638,
      "Dis": 3639,
      "There": 3640,
      "pe</w>": 3641,
      "keep</w>": 3642,
      "hand</w>": 3643,
      "timately</w>": 3644,
      "activities</w>": 3645,
      "structure</w>": 3646,
      "ole</w>": 3647,
      "building</w>": 3648,
      "Therefore</w>": 3649,
      "adap": 3650,
      "finding</w>": 3651,
      "def": 3652,
      "helps</w>": 3653,
      "--------------------------------": 3654,
      "chec": 3655,
      "istic</w>": 3656,
      "traditional</w>": 3657,
      "square</w>": 3658,
      "business</w>": 3659,
      "perspec": 3660,
      "satis": 3661,
      "esti": 3662,
      "evol": 3663,
      "next</w>": 3664,
      "ult</w>": 3665,
      "cra": 3666,
      "model": 3667,
      "radi": 3668,
      "provides</w>": 3669,
      "clos": 3670,
      "behavior</w>": 3671,
      "nor": 3672,
      "Po": 3673,
      "turn</w>": 3674,
      "active</w>": 3675,
      "cies</w>": 3676,
      "course</w>": 3677,
      "perio": 3678,
      "bal</w>": 3679,
      "targ": 3680,
      "above</w>": 3681,
      "distinc": 3682,
      "language</w>": 3683,
      "exist": 3684,
      "**:</w>": 3685,
      "natural</w>": 3686,
      "lar": 3687,
      "thermore</w>": 3688,
      "processes</w>": 3689,
      "Example</w>": 3690,
      "II</w>": 3691,
      "spor": 3692,
      "technology</w>": 3693,
      "erci": 3694,
      "net": 3695,
      "ounds</w>": 3696,
      "fostering</w>": 3697,
      "tas": 3698,
      "taking</w>": 3699,
      "Furthermore</w>": 3700,
      "exten": 3701,
      "wing</w>": 3702,
      "Op": 3703,
      "ually</w>": 3704,
      "materials</w>": 3705,
      "management</w>": 3706,
      "ground</w>": 3707,
      "total</w>": 3708,
      "decision</w>": 3709,
      "previ": 3710,
      "directly</w>": 3711,
      "emerg": 3712,
      "parts</w>": 3713,
      "audi": 3714,
      "contribute</w>": 3715,
      "clear</w>": 3716,
      "initial</w>": 3717,
      "fas": 3718,
      "today</w>": 3719,
      "learned</w>": 3720,
      "formula</w>": 3721,
      "bra": 3722,
      "sl": 3723,
      "intern": 3724,
      "20</w>": 3725,
      "stat": 3726,
      "sures</w>": 3727,
      "approaches</w>": 3728,
      "simple</w>": 3729,
      "ners</w>": 3730,
      "Reg": 3731,
      "control</w>": 3732,
      "having</w>": 3733,
      "connections</w>": 3734,
      "equations</w>": 3735,
      "stri": 3736,
      "insp": 3737,
      "ped</w>": 3738,
      "descri": 3739,
      "success</w>": 3740,
      "gam": 3741,
      "eed</w>": 3742,
      "chil": 3743,
      "beli": 3744,
      "ify</w>": 3745,
      "complet": 3746,
      "dre": 3747,
      "needed</w>": 3748,
      "concerns</w>": 3749,
      "level</w>": 3750,
      "mod": 3751,
      "public</w>": 3752,
      "ded</w>": 3753,
      "cos</w>": 3754,
      "move</w>": 3755,
      "build</w>": 3756,
      "ressing</w>": 3757,
      "features</w>": 3758,
      "larg": 3759,
      "uni": 3760,
      "represent</w>": 3761,
      "_1</w>": 3762,
      "competi": 3763,
      "benefits</w>": 3764,
      "efforts</w>": 3765,
      "ended</w>": 3766,
      "med": 3767,
      "solving</w>": 3768,
      "delve</w>": 3769,
      "Thus</w>": 3770,
      "linear</w>": 3771,
      "available</w>": 3772,
      "Finally</w>": 3773,
      "Mar": 3774,
      "\\*</w>": 3775,
      "years</w>": 3776,
      "ery</w>": 3777,
      "oration</w>": 3778,
      "outcomes</w>": 3779,
      "tations</w>": 3780,
      "ilit": 3781,
      "Sim": 3782,
      "quanti": 3783,
      "ali": 3784,
      "versity</w>": 3785,
      "field</w>": 3786,
      "options</w>": 3787,
      "erence</w>": 3788,
      "hind</w>": 3789,
      "special</w>": 3790,
      "her": 3791,
      "concept</w>": 3792,
      "fig": 3793,
      "vr": 3794,
      "fill": 3795,
      "feel</w>": 3796,
      "ected</w>": 3797,
      "analysis</w>": 3798,
      "makes</w>": 3799,
      "second</w>": 3800,
      "cy": 3801,
      "my": 3802,
      "provided</w>": 3803,
      "properties</w>": 3804,
      "communities</w>": 3805,
      "aps</w>": 3806,
      "ues</w>": 3807,
      "solution</w>": 3808,
      "rep": 3809,
      "ained</w>": 3810,
      "shing</w>": 3811,
      "away</w>": 3812,
      "ine": 3813,
      "erences</w>": 3814,
      "atic</w>": 3815,
      "land": 3816,
      "doc": 3817,
      "mechan": 3818,
      "additional</w>": 3819,
      "Our</w>": 3820,
      "services</w>": 3821,
      "estig": 3822,
      "aching</w>": 3823,
      "determine</w>": 3824,
      "allowing</w>": 3825,
      "tract</w>": 3826,
      "commit": 3827,
      "val</w>": 3828,
      "ious</w>": 3829,
      "tan": 3830,
      "start</w>": 3831,
      "essing</w>": 3832,
      "events</w>": 3833,
      "Ke": 3834,
      "interest</w>": 3835,
      "think</w>": 3836,
      "users</w>": 3837,
      "Using</w>": 3838,
      "Spec": 3839,
      "rap": 3840,
      "apply</w>": 3841,
      "convers": 3842,
      "ric": 3843,
      "trav": 3844,
      "fel": 3845,
      "range</w>": 3846,
      "effective</w>": 3847,
      "financial</w>": 3848,
      "tren": 3849,
      "either</w>": 3850,
      "tail": 3851,
      "maxim": 3852,
      "answ": 3853,
      "owed</w>": 3854,
      "lig": 3855,
      "successful</w>": 3856,
      "strong</w>": 3857,
      "once</w>": 3858,
      "What</w>": 3859,
      "mun": 3860,
      "greater</w>": 3861,
      "physical</w>": 3862,
      "arri": 3863,
      "sust": 3864,
      "pas": 3865,
      "family</w>": 3866,
      "rements</w>": 3867,
      "true</w>": 3868,
      "ve": 3869,
      "media</w>": 3870,
      "stit": 3871,
      "home</w>": 3872,
      "ells</w>": 3873,
      "Unit</w>": 3874,
      "progr": 3875,
      "yn": 3876,
      "gain</w>": 3877,
      "behind</w>": 3878,
      "Sh": 3879,
      "te</w>": 3880,
      "enough</w>": 3881,
      "Cre": 3882,
      "cam": 3883,
      "members</w>": 3884,
      "easi": 3885,
      "education</w>": 3886,
      "inating</w>": 3887,
      "head</w>": 3888,
      "go</w>": 3889,
      "lies</w>": 3890,
      "focusing</w>": 3891,
      "ours</w>": 3892,
      "higher</w>": 3893,
      "length</w>": 3894,
      "Des": 3895,
      "appropriate</w>": 3896,
      "Wor": 3897,
      "frequ": 3898,
      "words</w>": 3899,
      "As": 3900,
      "omet": 3901,
      "urity</w>": 3902,
      "scenari": 3903,
      "sometimes</w>": 3904,
      "Qu": 3905,
      "balance</w>": 3906,
      "found": 3907,
      "early</w>": 3908,
      "utili": 3909,
      "vis": 3910,
      "present": 3911,
      "ner</w>": 3912,
      "denti": 3913,
      "govern": 3914,
      "reve": 3915,
      "single</w>": 3916,
      "small": 3917,
      "ource</w>": 3918,
      "lab": 3919,
      "aged</w>": 3920,
      "dro": 3921,
      "Ha": 3922,
      "products</w>": 3923,
      "achiev": 3924,
      "mast": 3925,
      "top</w>": 3926,
      "list": 3927,
      "ideas</w>": 3928,
      "dive</w>": 3929,
      "modern</w>": 3930,
      "utes</w>": 3931,
      "stre": 3932,
      "Prac": 3933,
      "mean</w>": 3934,
      "approxim": 3935,
      "porary</w>": 3936,
      "add</w>": 3937,
      "rates</w>": 3938,
      "son</w>": 3939,
      "new": 3940,
      "12</w>": 3941,
      "sharing</w>": 3942,
      "youn": 3943,
      "shape</w>": 3944,
      "dx</w>": 3945,
      "rix</w>": 3946,
      "ising</w>": 3947,
      "Before</w>": 3948,
      "relevant</w>": 3949,
      "assum": 3950,
      "variables</w>": 3951,
      "Tim": 3952,
      "read</w>": 3953,
      "applying</w>": 3954,
      "dition</w>": 3955,
      "character": 3956,
      "rate</w>": 3957,
      "otes</w>": 3958,
      "shor": 3959,
      "particularly</w>": 3960,
      "im</w>": 3961,
      "anim": 3962,
      "seeking</w>": 3963,
      "non": 3964,
      "illustr": 3965,
      "eling</w>": 3966,
      "scap": 3967,
      "type</w>": 3968,
      "tex": 3969,
      "pu": 3970,
      "exciting</w>": 3971,
      "From</w>": 3972,
      "identify</w>": 3973,
      "ugg": 3974,
      "coo": 3975,
      "sal": 3976,
      "goals</w>": 3977,
      "surrounding</w>": 3978,
      "allow</w>": 3979,
      "ries</w>": 3980,
      "ologies</w>": 3981,
      "large</w>": 3982,
      "expected</w>": 3983,
      "ders</w>": 3984,
      "lay": 3985,
      "constant</w>": 3986,
      "forward</w>": 3987,
      "wat": 3988,
      "stric": 3989,
      "remain</w>": 3990,
      "Jo": 3991,
      "powerful</w>": 3992,
      "vo": 3993,
      "numerous</w>": 3994,
      "estim": 3995,
      "scienti": 3996,
      "economic</w>": 3997,
      "market</w>": 3998,
      "interpre": 3999,
      "studies</w>": 4000,
      "series</w>": 4001,
      "del</w>": 4002,
      "digital</w>": 4003,
      "An</w>": 4004,
      "cally</w>": 4005,
      "dom</w>": 4006,
      "priv": 4007,
      "advent": 4008,
      "implement": 4009,
      "encoun": 4010,
      "him</w>": 4011,
      "recei": 4012,
      "vr6</w>": 4013,
      "compared</w>": 4014,
      "oned</w>": 4015,
      "elling</w>": 4016,
      "respect</w>": 4017,
      "exac": 4018,
      "investig": 4019,
      "Str": 4020,
      "Keep</w>": 4021,
      "shif": 4022,
      "music</w>": 4023,
      "current</w>": 4024,
      "Next</w>": 4025,
      "separ": 4026,
      "vision</w>": 4027,
      "facilit": 4028,
      "Guideline</w>": 4029,
      "alities</w>": 4030,
      "sib": 4031,
      "measures</w>": 4032,
      "boo": 4033,
      "seem": 4034,
      "deb": 4035,
      "organizations</w>": 4036,
      "ption</w>": 4037,
      "kers</w>": 4038,
      "unc": 4039,
      "exerci": 4040,
      "bound": 4041,
      "200": 4042,
      "arch": 4043,
      "history</w>": 4044,
      "examples</w>": 4045,
      "game</w>": 4046,
      "bloc": 4047,
      "tor</w>": 4048,
      "continue</w>": 4049,
      "lying</w>": 4050,
      "Sup": 4051,
      "fundam": 4052,
      "matrix</w>": 4053,
      "nar": 4054,
      "ball</w>": 4055,
      "Use</w>": 4056,
      "context</w>": 4057,
      "##</w>": 4058,
      "empha": 4059,
      "plays</w>": 4060,
      "Co": 4061,
      "enhance</w>": 4062,
      "wise</w>": 4063,
      "ope</w>": 4064,
      "very</w>": 4065,
      "decisions</w>": 4066,
      "involved</w>": 4067,
      "present</w>": 4068,
      "historical</w>": 4069,
      "deep</w>": 4070,
      "application</w>": 4071,
      "correc": 4072,
      "ght": 4073,
      "engagement</w>": 4074,
      "slo": 4075,
      "comprehensive</w>": 4076,
      "grad": 4077,
      "address</w>": 4078,
      "inside</w>": 4079,
      "examine</w>": 4080,
      "friend</w>": 4081,
      "adding</w>": 4082,
      "user</w>": 4083,
      "gra": 4084,
      "non</w>": 4085,
      "ensures</w>": 4086,
      "base</w>": 4087,
      "content</w>": 4088,
      "He</w>": 4089,
      "fasc": 4090,
      "resulting</w>": 4091,
      "lex</w>": 4092,
      "hou": 4093,
      "factor</w>": 4094,
      "mess": 4095,
      "lier</w>": 4096,
      "}$</w>": 4097,
      "cep": 4098,
      "safety</w>": 4099,
      "particular</w>": 4100,
      "mind</w>": 4101,
      "expressions</w>": 4102,
      "pop": 4103,
      "hal": 4104,
      "embrac": 4105,
      "eas": 4106,
      "conv": 4107,
      "any": 4108,
      "rely</w>": 4109,
      "ma</w>": 4110,
      "force</w>": 4111,
      "tically</w>": 4112,
      "dimen": 4113,
      "evidence</w>": 4114,
      "state</w>": 4115,
      "themselves</w>": 4116,
      "graph</w>": 4117,
      "onto</w>": 4118,
      "ains</w>": 4119,
      "ath</w>": 4120,
      "oph": 4121,
      "health": 4122,
      "wea": 4123,
      "sugg": 4124,
      "exploration</w>": 4125,
      "arity</w>": 4126,
      "mathematical</w>": 4127,
      "platforms</w>": 4128,
      "2x</w>": 4129,
      "room</w>": 4130,
      "designed</w>": 4131,
      "four</w>": 4132,
      "fav": 4133,
      "there": 4134,
      "school</w>": 4135,
      "amount</w>": 4136,
      "required</w>": 4137,
      "someone</w>": 4138,
      "progress</w>": 4139,
      "free</w>": 4140,
      "mathb": 4141,
      "ee": 4142,
      "ograph": 4143,
      "xed</w>": 4144,
      "int</w>": 4145,
      "structures</w>": 4146,
      "reas": 4147,
      "long": 4148,
      "Sol": 4149,
      "broad": 4150,
      "\\\\</w>": 4151,
      "sequently</w>": 4152,
      "posed</w>": 4153,
      "enables</w>": 4154,
      "distribution</w>": 4155,
      "sett": 4156,
      "units</w>": 4157,
      "variable</w>": 4158,
      "models</w>": 4159,
      "imagine</w>": 4160,
      "alls</w>": 4161,
      "Some</w>": 4162,
      "final</w>": 4163,
      "electr": 4164,
      "property</w>": 4165,
      "landscap": 4166,
      "cou": 4167,
      "accoun": 4168,
      "Alex</w>": 4169,
      "young</w>": 4170,
      "mor": 4171,
      "theore": 4172,
      "promoting</w>": 4173,
      "ording</w>": 4174,
      "specifically</w>": 4175,
      "setting</w>": 4176,
      "sources</w>": 4177,
      "sibility</w>": 4178,
      "ie</w>": 4179,
      "cli": 4180,
      "informed</w>": 4181,
      "compan": 4182,
      "ail</w>": 4183,
      "rules</w>": 4184,
      "culture</w>": 4185,
      "overed</w>": 4186,
      "simul": 4187,
      "distinct</w>": 4188,
      "smaller</w>": 4189,
      "increased</w>": 4190,
      "ny</w>": 4191,
      "tin": 4192,
      "Analy": 4193,
      "Devel": 4194,
      "quick": 4195,
      "businesses</w>": 4196,
      "ring</w>": 4197,
      "rule</w>": 4198,
      "items</w>": 4199,
      "location</w>": 4200,
      "sustain": 4201,
      "preser": 4202,
      "web": 4203,
      "indic": 4204,
      "say</w>": 4205,
      "incorporating</w>": 4206,
      "Inter": 4207,
      "sta": 4208,
      "predic": 4209,
      "dered</w>": 4210,
      "earlier</w>": 4211,
      "inary</w>": 4212,
      "isn</w>": 4213,
      "Simil": 4214,
      "isms</w>": 4215,
      "team</w>": 4216,
      "-\\</w>": 4217,
      "hom": 4218,
      "__": 4219,
      "style</w>": 4220,
      "etting</w>": 4221,
      "writ": 4222,
      "_2</w>": 4223,
      "contem": 4224,
      "production</w>": 4225,
      "advant": 4226,
      "challenge</w>": 4227,
      "distance</w>": 4228,
      "consistent</w>": 4229,
      "cases</w>": 4230,
      "Appl": 4231,
      "derivative</w>": 4232,
      "For": 4233,
      "####</w>": 4234,
      "ids</w>": 4235,
      "objec": 4236,
      "operations</w>": 4237,
      "difference</w>": 4238,
      "reach</w>": 4239,
      "icro": 4240,
      "ourse</w>": 4241,
      "costs</w>": 4242,
      "full</w>": 4243,
      "did</w>": 4244,
      "wal": 4245,
      "ule</w>": 4246,
      "solve</w>": 4247,
      "industr": 4248,
      "industry</w>": 4249,
      "Man": 4250,
      "air</w>": 4251,
      "aily</w>": 4252,
      "efficient</w>": 4253,
      "cost</w>": 4254,
      "Ano": 4255,
      "complex": 4256,
      "temper": 4257,
      "larger</w>": 4258,
      "Today</w>": 4259,
      "careful</w>": 4260,
      "'(</w>": 4261,
      "follows</w>": 4262,
      "avoid</w>": 4263,
      "stories</w>": 4264,
      "trends</w>": 4265,
      "aper</w>": 4266,
      "ake</w>": 4267,
      "Tip</w>": 4268,
      "Each</w>": 4269,
      "entially</w>": 4270,
      "align</w>": 4271,
      "experim": 4272,
      "ym": 4273,
      "Another</w>": 4274,
      "port</w>": 4275,
      "marketing</w>": 4276,
      "disp": 4277,
      "itable</w>": 4278,
      "fram": 4279,
      "Identi": 4280,
      "food</w>": 4281,
      "choose</w>": 4282,
      "hours</w>": 4283,
      "Li": 4284,
      "ash": 4285,
      "person": 4286,
      "did": 4287,
      "spea": 4288,
      "))</w>": 4289,
      "coordin": 4290,
      "fundamental</w>": 4291,
      "ges</w>": 4292,
      "adj": 4293,
      "improv": 4294,
      "cat": 4295,
      "whole</w>": 4296,
      "oms</w>": 4297,
      "...</w>": 4298,
      "identity</w>": 4299,
      "moving</w>": 4300,
      "however</w>": 4301,
      "vector</w>": 4302,
      "popular</w>": 4303,
      "defined</w>": 4304,
      "engaging</w>": 4305,
      "ume</w>": 4306,
      "perfect</w>": 4307,
      "treat": 4308,
      "tane": 4309,
      "real": 4310,
      "eter": 4311,
      "environmental</w>": 4312,
      "paren": 4313,
      "carefully</w>": 4314,
      "ark</w>": 4315,
      "No": 4316,
      "addressing</w>": 4317,
      "AAAAAAAA": 4318,
      "ush</w>": 4319,
      "city</w>": 4320,
      "omin": 4321,
      "follow</w>": 4322,
      "eve</w>": 4323,
      "far</w>": 4324,
      "ment": 4325,
      "fied</w>": 4326,
      "depending</w>": 4327,
      "icial</w>": 4328,
      "liter": 4329,
      "tang": 4330,
      "qui": 4331,
      "bur": 4332,
      "cipl": 4333,
      "integ": 4334,
      "lik": 4335,
      "equip": 4336,
      "Cl": 4337,
      "docum": 4338,
      "good</w>": 4339,
      "deed</w>": 4340,
      "calculate</w>": 4341,
      "tou": 4342,
      "improve</w>": 4343,
      "Instead</w>": 4344,
      "love</w>": 4345,
      "000</w>": 4346,
      "collaboration</w>": 4347,
      "interests</w>": 4348,
      ")(</w>": 4349,
      "nov": 4350,
      "sof": 4351,
      "ultimately</w>": 4352,
      "professional</w>": 4353,
      "existing</w>": 4354,
      "started</w>": 4355,
      "engage</w>": 4356,
      "Gre": 4357,
      "ram</w>": 4358,
      "wide</w>": 4359,
      "global</w>": 4360,
      "He": 4361,
      "profession": 4362,
      "She</w>": 4363,
      "suff": 4364,
      "dot</w>": 4365,
      "quickly</w>": 4366,
      "develop</w>": 4367,
      "occ": 4368,
      "recent</w>": 4369,
      "omial</w>": 4370,
      "trust</w>": 4371,
      "sequences</w>": 4372,
      "wee": 4373,
      "Comp": 4374,
      "axis</w>": 4375,
      "ready</w>": 4376,
      "risk</w>": 4377,
      "atively</w>": 4378,
      "doing</w>": 4379,
      "agre": 4380,
      "intricate</w>": 4381,
      "aimed</w>": 4382,
      "discover": 4383,
      "ash</w>": 4384,
      "environment</w>": 4385,
      "eta</w>": 4386,
      "mut": 4387,
      "dings</w>": 4388,
      "compar": 4389,
      "adem": 4390,
      "despite</w>": 4391,
      "arm": 4392,
      "sil": 4393,
      "daily</w>": 4394,
      "Eng": 4395,
      "examining</w>": 4396,
      "desired</w>": 4397,
      "zed</w>": 4398,
      "prior": 4399,
      "udes</w>": 4400,
      "onic</w>": 4401,
      "ender</w>": 4402,
      "regular</w>": 4403,
      "discipl": 4404,
      "categ": 4405,
      "kets</w>": 4406,
      "diag": 4407,
      "model</w>": 4408,
      "Exam": 4409,
      "inst": 4410,
      "Despite</w>": 4411,
      "independ": 4412,
      "aying</w>": 4413,
      "method</w>": 4414,
      "optimal</w>": 4415,
      "science</w>": 4416,
      "50</w>": 4417,
      "visual</w>": 4418,
      "Be</w>": 4419,
      "resid": 4420,
      "typically</w>": 4421,
      "core</w>": 4422,
      "ativity</w>": 4423,
      "previous</w>": 4424,
      "itself</w>": 4425,
      "political</w>": 4426,
      ")$</w>": 4427,
      "acts</w>": 4428,
      "therap": 4429,
      "entire</w>": 4430,
      "alization</w>": 4431,
      "seem</w>": 4432,
      "alge": 4433,
      "everything</w>": 4434,
      "corresponding</w>": 4435,
      "shaping</w>": 4436,
      "resili": 4437,
      "syn": 4438,
      "Hi": 4439,
      "ton</w>": 4440,
      "surface</w>": 4441,
      "alog": 4442,
      "ury</w>": 4443,
      "hold</w>": 4444,
      "underlying</w>": 4445,
      "playing</w>": 4446,
      "equality</w>": 4447,
      "pieces</w>": 4448,
      "measu": 4449,
      "rich</w>": 4450,
      "Pol": 4451,
      "friend": 4452,
      "own": 4453,
      "spac": 4454,
      "ores</w>": 4455,
      "encies</w>": 4456,
      "according</w>": 4457,
      "_n</w>": 4458,
      "nu": 4459,
      "little</w>": 4460,
      "looking</w>": 4461,
      "Bu": 4462,
      "site</w>": 4463,
      "vital</w>": 4464,
      "meaning": 4465,
      "ush": 4466,
      "aspect</w>": 4467,
      "atory</w>": 4468,
      "spo": 4469,
      "exactly</w>": 4470,
      "require</w>": 4471,
      "fascinating</w>": 4472,
      "ratic</w>": 4473,
      "test</w>": 4474,
      "won": 4475,
      "uro": 4476,
      "bac": 4477,
      "continuous</w>": 4478,
      "decided</w>": 4479,
      "stra": 4480,
      "security</w>": 4481,
      "bol": 4482,
      "lives</w>": 4483,
      "lower</w>": 4484,
      "om</w>": 4485,
      "American</w>": 4486,
      "pic": 4487,
      "ken</w>": 4488,
      "erent</w>": 4489,
      "asting</w>": 4490,
      "ele": 4491,
      "So": 4492,
      "ging</w>": 4493,
      "auti": 4494,
      "ially</w>": 4495,
      "enced</w>": 4496,
      "cu": 4497,
      "near</w>": 4498,
      "perspectives</w>": 4499,
      "ses": 4500,
      "situations</w>": 4501,
      "fron": 4502,
      "matter</w>": 4503,
      "color</w>": 4504,
      "?\"</w>": 4505,
      "elcome</w>": 4506,
      "famili": 4507,
      "thor": 4508,
      "ef</w>": 4509,
      "enab": 4510,
      "Consequently</w>": 4511,
      "inh": 4512,
      "primary</w>": 4513,
      "thinking</w>": 4514,
      "proper</w>": 4515,
      "piece</w>": 4516,
      "ongoing</w>": 4517,
      "introduc": 4518,
      "manu": 4519,
      "Sk": 4520,
      "idea</w>": 4521,
      "There</w>": 4522,
      "Similarly</w>": 4523,
      "tun": 4524,
      "earch</w>": 4525,
      "cle</w>": 4526,
      "observ": 4527,
      "sense</w>": 4528,
      "advanced</w>": 4529,
      "challenging</w>": 4530,
      "deli": 4531,
      "Specifically</w>": 4532,
      "Sel": 4533,
      "changing</w>": 4534,
      "alternative</w>": 4535,
      "bor": 4536,
      "ably</w>": 4537,
      "differenti": 4538,
      "healthcare</w>": 4539,
      "Then</w>": 4540,
      "policies</w>": 4541,
      "speci": 4542,
      "flic": 4543,
      "increase</w>": 4544,
      "denomin": 4545,
      "box</w>": 4546,
      "contemporary</w>": 4547,
      "Sp": 4548,
      "keep": 4549,
      "limit</w>": 4550,
      "foster</w>": 4551,
      "book</w>": 4552,
      "institu": 4553,
      "onent</w>": 4554,
      "eness</w>": 4555,
      "tt": 4556,
      "ened</w>": 4557,
      "society</w>": 4558,
      "planning</w>": 4559,
      "dynamics</w>": 4560,
      "chers</w>": 4561,
      "cles</w>": 4562,
      "forc": 4563,
      "irs</w>": 4564,
      "account</w>": 4565,
      "goal</w>": 4566,
      "story</w>": 4567,
      "past</w>": 4568,
      "guidel": 4569,
      "favor": 4570,
      "ah</w>": 4571,
      "polyn": 4572,
      "question</w>": 4573,
      "espec": 4574,
      "rup": 4575,
      "basic</w>": 4576,
      "especially</w>": 4577,
      "gives</w>": 4578,
      "topics</w>": 4579,
      ")=</w>": 4580,
      "tru": 4581,
      "meaning</w>": 4582,
      "horiz": 4583,
      "innovation</w>": 4584,
      "analyzing</w>": 4585,
      "conduc": 4586,
      "wan": 4587,
      "mach": 4588,
      "eless</w>": 4589,
      "engine": 4590,
      "On</w>": 4591,
      "fication</w>": 4592,
      "edback</w>": 4593,
      "standard</w>": 4594,
      "alize</w>": 4595,
      "training</w>": 4596,
      "zes</w>": 4597,
      "bit</w>": 4598,
      "serves</w>": 4599,
      "Sec": 4600,
      "{(</w>": 4601,
      "utting</w>": 4602,
      "prevent</w>": 4603,
      "chem": 4604,
      "give</w>": 4605,
      "apter</w>": 4606,
      "again</w>": 4607,
      "sibilities</w>": 4608,
      "slope</w>": 4609,
      "18": 4610,
      "project</w>": 4611,
      "hid": 4612,
      "legal</w>": 4613,
      "differences</w>": 4614,
      "ects</w>": 4615,
      "etc</w>": 4616,
      "mal</w>": 4617,
      "significance</w>": 4618,
      "ose</w>": 4619,
      "risks</w>": 4620,
      "anding</w>": 4621,
      "stry</w>": 4622,
      "starting</w>": 4623,
      "Just</w>": 4624,
      "never</w>": 4625,
      "cannot</w>": 4626,
      "transi": 4627,
      "company</w>": 4628,
      "tware</w>": 4629,
      "connection</w>": 4630,
      "eu": 4631,
      "itation</w>": 4632,
      "preferences</w>": 4633,
      "erial</w>": 4634,
      "rigor": 4635,
      "sear": 4636,
      "man</w>": 4637,
      "repe": 4638,
      "Mon": 4639,
      "clean": 4640,
      "pass": 4641,
      "ban": 4642,
      "Par": 4643,
      "oods</w>": 4644,
      "adop": 4645,
      "word</w>": 4646,
      "run": 4647,
      "hood</w>": 4648,
      "decim": 4649,
      "geomet": 4650,
      "few</w>": 4651,
      "\\(</w>": 4652,
      "close</w>": 4653,
      "15</w>": 4654,
      "upd": 4655,
      "craf": 4656,
      "fun</w>": 4657,
      "des</w>": 4658,
      "where": 4659,
      "programs</w>": 4660,
      "Welcome</w>": 4661,
      "fru": 4662,
      "implications</w>": 4663,
      "influence</w>": 4664,
      "vide": 4665,
      "refers</w>": 4666,
      "astly</w>": 4667,
      "faced</w>": 4668,
      "ldn</w>": 4669,
      "25</w>": 4670,
      "policy</w>": 4671,
      "Bo": 4672,
      "exi": 4673,
      "usi": 4674,
      "wom": 4675,
      "paper</w>": 4676,
      "living</w>": 4677,
      "lessons</w>": 4678,
      "dou": 4679,
      "tailored</w>": 4680,
      "confidence</w>": 4681,
      "reducing</w>": 4682,
      "filled</w>": 4683,
      "thought</w>": 4684,
      "amet": 4685,
      "pressure</w>": 4686,
      "diffic": 4687,
      "easy</w>": 4688,
      "sist": 4689,
      "Acc": 4690,
      "stic</w>": 4691,
      "ares</w>": 4692,
      "below</w>": 4693,
      "quad": 4694,
      "details</w>": 4695,
      "interactions</w>": 4696,
      "strugg": 4697,
      "ird</w>": 4698,
      "name</w>": 4699,
      "established</w>": 4700,
      "ew": 4701,
      "rights</w>": 4702,
      "weight</w>": 4703,
      "oning</w>": 4704,
      "person</w>": 4705,
      "Ob": 4706,
      "Chri": 4707,
      "ls</w>": 4708,
      "enhancing</w>": 4709,
      "idst</w>": 4710,
      "Go": 4711,
      "asingly</w>": 4712,
      "sor": 4713,
      "law</w>": 4714,
      "frame": 4715,
      "tasks</w>": 4716,
      "Tran": 4717,
      "scre": 4718,
      "theory</w>": 4719,
      "phen": 4720,
      "settings</w>": 4721,
      "sul": 4722,
      "promote</w>": 4723,
      "requirements</w>": 4724,
      "sun": 4725,
      "integral</w>": 4726,
      "increasingly</w>": 4727,
      "El": 4728,
      "heav": 4729,
      "Sch": 4730,
      "professionals</w>": 4731,
      "cop": 4732,
      "cross</w>": 4733,
      "00": 4734,
      "resol": 4735,
      "esn</w>": 4736,
      "lights</w>": 4737,
      "ading</w>": 4738,
      "tool</w>": 4739,
      "broader</w>": 4740,
      "prep": 4741,
      "ont": 4742,
      "cy</w>": 4743,
      "Fac": 4744,
      "service</w>": 4745,
      "statis": 4746,
      "outside</w>": 4747,
      "$(</w>": 4748,
      "fields</w>": 4749,
      "purch": 4750,
      "big</w>": 4751,
      "considering</w>": 4752,
      "resilience</w>": 4753,
      "analyze</w>": 4754,
      "ker</w>": 4755,
      "conflic": 4756,
      "takes</w>": 4757,
      "rigorous</w>": 4758,
      "simply</w>": 4759,
      "eli": 4760,
      "ipul": 4761,
      "land</w>": 4762,
      "closer</w>": 4763,
      "artic": 4764,
      "infin": 4765,
      "enabling</w>": 4766,
      "osity</w>": 4767,
      "doesn</w>": 4768,
      "sequence</w>": 4769,
      "autom": 4770,
      "effects</w>": 4771,
      "interval</w>": 4772,
      "exist</w>": 4773,
      "named</w>": 4774,
      "complete</w>": 4775,
      "propor": 4776,
      "Their</w>": 4777,
      "meaningful</w>": 4778,
      "gar": 4779,
      "Sar": 4780,
      "Stud": 4781,
      "answer</w>": 4782,
      "circle</w>": 4783,
      "gorith": 4784,
      "ads</w>": 4785,
      "areness</w>": 4786,
      "feedback</w>": 4787,
      "Lastly</w>": 4788,
      "direct</w>": 4789,
      "eful</w>": 4790,
      "choices</w>": 4791,
      "tioning</w>": 4792,
      "clas": 4793,
      "probability</w>": 4794,
      "aim</w>": 4795,
      "schol": 4796,
      "customer</w>": 4797,
      "year</w>": 4798,
      "Sub": 4799,
      "tability</w>": 4800,
      "continued</w>": 4801,
      "eted</w>": 4802,
      "Av": 4803,
      "thus</w>": 4804,
      "offering</w>": 4805,
      "foundation</w>": 4806,
      "emotional</w>": 4807,
      "Happ": 4808,
      "views</w>": 4809,
      "Or": 4810,
      "projects</w>": 4811,
      "increasing</w>": 4812,
      "responsible</w>": 4813,
      "istics</w>": 4814,
      "coming</w>": 4815,
      "heart</w>": 4816,
      "enever</w>": 4817,
      "oted</w>": 4818,
      "lighting</w>": 4819,
      "Techn": 4820,
      "down": 4821,
      "scenarios</w>": 4822,
      "taneously</w>": 4823,
      "roles</w>": 4824,
      "fore": 4825,
      "omen": 4826,
      "Am": 4827,
      "ised</w>": 4828,
      "discuss</w>": 4829,
      "note</w>": 4830,
      "orial</w>": 4831,
      "states</w>": 4832,
      "cdot</w>": 4833,
      "arrang": 4834,
      "academ": 4835,
      "researchers</w>": 4836,
      "_i</w>": 4837,
      "fre": 4838,
      "dit</w>": 4839,
      "Gi": 4840,
      "pursu": 4841,
      "Research</w>": 4842,
      "yields</w>": 4843,
      "check</w>": 4844,
      "days</w>": 4845,
      "theta</w>": 4846,
      "speed</w>": 4847,
      "mus": 4848,
      "navigate</w>": 4849,
      "meet</w>": 4850,
      "scale</w>": 4851,
      "empa": 4852,
      "innovative</w>": 4853,
      "efficiency</w>": 4854,
      "reduce</w>": 4855,
      "bon": 4856,
      "ense</w>": 4857,
      "involve</w>": 4858,
      "manipul": 4859,
      "height</w>": 4860,
      "alizing</w>": 4861,
      "thereby</w>": 4862,
      "activity</w>": 4863,
      "half</w>": 4864,
      "jud": 4865,
      "aster</w>": 4866,
      "Make</w>": 4867,
      "fraction</w>": 4868,
      "bre": 4869,
      "itive</w>": 4870,
      "Mat": 4871,
      "five</w>": 4872,
      "forces</w>": 4873,
      "triangle</w>": 4874,
      "faces</w>": 4875,
      "100</w>": 4876,
      "situation</w>": 4877,
      "ee</w>": 4878,
      "Choose</w>": 4879,
      "objects</w>": 4880,
      "aver": 4881,
      "``": 4882,
      "expectations</w>": 4883,
      "guidelines</w>": 4884,
      "```</w>": 4885,
      "let": 4886,
      "($</w>": 4887,
      "usu": 4888,
      "recomm": 4889,
      "skin</w>": 4890,
      "ink</w>": 4891,
      "menti": 4892,
      "commitment</w>": 4893,
      "Gr": 4894,
      "poss": 4895,
      "Vi": 4896,
      "exhi": 4897,
      "rob": 4898,
      "software</w>": 4899,
      "encing</w>": 4900,
      "oosing</w>": 4901,
      "osen</w>": 4902,
      "boundaries</w>": 4903,
      "ethical</w>": 4904,
      "medical</w>": 4905,
      "evi": 4906,
      "vel": 4907,
      "phot": 4908,
      "hard</w>": 4909,
      "etal</w>": 4910,
      ")\\</w>": 4911,
      "remin": 4912,
      "discovered</w>": 4913,
      "tip</w>": 4914,
      "pair</w>": 4915,
      "elebr": 4916,
      "phenomen": 4917,
      "population</w>": 4918,
      "net</w>": 4919,
      "point": 4920,
      "flexi": 4921,
      "served</w>": 4922,
      "began</w>": 4923,
      "clim": 4924,
      "accurate</w>": 4925,
      "sug": 4926,
      "awareness</w>": 4927,
      "seas": 4928,
      "input</w>": 4929,
      "curve</w>": 4930,
      "hab": 4931,
      "arith": 4932,
      "itor</w>": 4933,
      "show</w>": 4934,
      "exists</w>": 4935,
      "class</w>": 4936,
      "customers</w>": 4937,
      "err": 4938,
      "adventure</w>": 4939,
      "circum": 4940,
      "dly</w>": 4941,
      "amidst</w>": 4942,
      "seg": 4943,
      "roots</w>": 4944,
      "creativity</w>": 4945,
      "immedi": 4946,
      "equals</w>": 4947,
      "Pri": 4948,
      "chosen</w>": 4949,
      "seemingly</w>": 4950,
      "whenever</w>": 4951,
      "express</w>": 4952,
      "root</w>": 4953,
      "$$\\</w>": 4954,
      "fractions</w>": 4955,
      "opportunity</w>": 4956,
      "transl": 4957,
      "bed</w>": 4958,
      "Accor": 4959,
      "volume</w>": 4960,
      "Expl": 4961,
      "break</w>": 4962,
      "cians</w>": 4963,
      "obtain</w>": 4964,
      "New</w>": 4965,
      "pi</w>": 4966,
      ")/</w>": 4967,
      "race</w>": 4968,
      "unexpected</w>": 4969,
      "tit": 4970,
      "later</w>": 4971,
      "Develop": 4972,
      "enable</w>": 4973,
      "sound</w>": 4974,
      "lim</w>": 4975,
      "appreciation</w>": 4976,
      "vely</w>": 4977,
      "stay</w>": 4978,
      "itations</w>": 4979,
      "addition</w>": 4980,
      "positions</w>": 4981,
      "30</w>": 4982,
      "entation</w>": 4983,
      "rele": 4984,
      "containing</w>": 4985,
      "Section</w>": 4986,
      "write</w>": 4987,
      "connected</w>": 4988,
      "edge</w>": 4989,
      "plan</w>": 4990,
      "Tra": 4991,
      "measure</w>": 4992,
      "reading</w>": 4993,
      "response</w>": 4994,
      "rout": 4995,
      "turns</w>": 4996,
      "algorith": 4997,
      "ror</w>": 4998,
      "potentially</w>": 4999,
      "Happy</w>": 5000,
      "money</w>": 5001,
      "ident</w>": 5002,
      "occur": 5003,
      "strategy</w>": 5004,
      "international</w>": 5005,
      "------------": 5006,
      "exec": 5007,
      "hypo": 5008,
      "short</w>": 5009,
      "instruc": 5010,
      "said</w>": 5011,
      "smo": 5012,
      "lat": 5013,
      "ternal</w>": 5014,
      "easier</w>": 5015,
      "motion</w>": 5016,
      "alike</w>": 5017,
      "findings</w>": 5018,
      "sle": 5019,
      "healthy</w>": 5020,
      "sensi": 5021,
      "appreciate</w>": 5022,
      "ign</w>": 5023,
      "sych": 5024,
      "sit</w>": 5025,
      "developing</w>": 5026,
      "Practice</w>": 5027,
      "_0</w>": 5028,
      "technologies</w>": 5029,
      "promp": 5030,
      "sites</w>": 5031,
      "show": 5032,
      "Car": 5033,
      "games</w>": 5034,
      "dren</w>": 5035,
      "Ben": 5036,
      "mini": 5037,
      "approximately</w>": 5038,
      "stly</w>": 5039,
      "establish</w>": 5040,
      "landscape</w>": 5041,
      "sted</w>": 5042,
      "capable</w>": 5043,
      "attemp": 5044,
      ",\\</w>": 5045,
      "alism</w>": 5046,
      "tack": 5047,
      "managing</w>": 5048,
      "price</w>": 5049,
      "strategic</w>": 5050,
      "organization</w>": 5051,
      "appear": 5052,
      "transpor": 5053,
      "enth": 5054,
      "oes</w>": 5055,
      "{-</w>": 5056,
      "entral</w>": 5057,
      "call</w>": 5058,
      "ops</w>": 5059,
      "representing</w>": 5060,
      "adjust": 5061,
      "mentioned</w>": 5062,
      "\\)</w>": 5063,
      "gle</w>": 5064,
      "skill</w>": 5065,
      "solid</w>": 5066,
      "dless</w>": 5067,
      "stress</w>": 5068,
      "partial</w>": 5069,
      "fit</w>": 5070,
      "players</w>": 5071,
      "main</w>": 5072,
      "&=</w>": 5073,
      "least</w>": 5074,
      "period</w>": 5075,
      "rol": 5076,
      "motiv": 5077,
      "target</w>": 5078,
      "sem": 5079,
      "quad</w>": 5080,
      "spaces</w>": 5081,
      "equival": 5082,
      "writing</w>": 5083,
      "iosity</w>": 5084,
      "ifies</w>": 5085,
      "direction</w>": 5086,
      "interven": 5087,
      "dialog": 5088,
      "Well</w>": 5089,
      "emphasi": 5090,
      "Sarah</w>": 5091,
      "ight": 5092,
      "Why</w>": 5093,
      "utri": 5094,
      "drawing</w>": 5095,
      "toward</w>": 5096,
      "list</w>": 5097,
      "wanted</w>": 5098,
      "La": 5099,
      "Although</w>": 5100,
      "ched</w>": 5101,
      "material</w>": 5102,
      "enjoy</w>": 5103,
      "!\"</w>": 5104,
      "author": 5105,
      "character</w>": 5106,
      "comfort</w>": 5107,
      "constr": 5108,
      "job</w>": 5109,
      "itize</w>": 5110,
      "ections</w>": 5111,
      "robust</w>": 5112,
      "fic</w>": 5113,
      "view": 5114,
      "leads</w>": 5115,
      "center</w>": 5116,
      "Coll": 5117,
      "devices</w>": 5118,
      "dealing</w>": 5119,
      "counter": 5120,
      "================": 5121,
      "ises</w>": 5122,
      "religi": 5123,
      "+\\</w>": 5124,
      "discussions</w>": 5125,
      "diversity</w>": 5126,
      "maj": 5127,
      "bot": 5128,
      "event</w>": 5129,
      "track</w>": 5130,
      "bs</w>": 5131,
      "government</w>": 5132,
      "colle": 5133,
      "cells</w>": 5134,
      "came</w>": 5135,
      "accord": 5136,
      "realized</w>": 5137,
      "deri": 5138,
      "mechanisms</w>": 5139,
      "zz": 5140,
      "embracing</w>": 5141,
      "Pre": 5142,
      "issue</w>": 5143,
      "Course</w>": 5144,
      "inations</w>": 5145,
      "Su": 5146,
      "inning</w>": 5147,
      "Fe": 5148,
      "wards</w>": 5149,
      "tually</w>": 5150,
      "treatment</w>": 5151,
      "formation</w>": 5152,
      "environments</w>": 5153,
      "od": 5154,
      "enthusi": 5155,
      "60</w>": 5156,
      "tionality</w>": 5157,
      "//</w>": 5158,
      "ached</w>": 5159,
      "aims</w>": 5160,
      "icient</w>": 5161,
      "beauti": 5162,
      "modi": 5163,
      "indust": 5164,
      "sm</w>": 5165,
      "integration</w>": 5166,
      "Ph": 5167,
      "denominator</w>": 5168,
      "serving</w>": 5169,
      "comfortable</w>": 5170,
      "accordingly</w>": 5171,
      "proced": 5172,
      "Over": 5173,
      "enses</w>": 5174,
      "ought</w>": 5175,
      "mol": 5176,
      "appear</w>": 5177,
      "solely</w>": 5178,
      "Joh": 5179,
      "horizont": 5180,
      "ide</w>": 5181,
      "inherent</w>": 5182,
      "Jam": 5183,
      "written</w>": 5184,
      "Buil": 5185,
      "sample</w>": 5186,
      "shapes</w>": 5187,
      "nic": 5188,
      "cultiv": 5189,
      "illustrate</w>": 5190,
      "last</w>": 5191,
      "lightly</w>": 5192,
      "temperature</w>": 5193,
      "recor": 5194,
      "cover": 5195,
      "ongside</w>": 5196,
      "requiring</w>": 5197,
      "During</w>": 5198,
      "Tw": 5199,
      "conven": 5200,
      "rit": 5201,
      "contr": 5202,
      "Col": 5203,
      "truly</w>": 5204,
      "ta</w>": 5205,
      "mathematics</w>": 5206,
      "Commun": 5207,
      "aints</w>": 5208,
      "identifying</w>": 5209,
      "stage</w>": 5210,
      "representation</w>": 5211,
      "computer</w>": 5212,
      "Impl": 5213,
      "conversations</w>": 5214,
      "eye</w>": 5215,
      "authenti": 5216,
      "asked</w>": 5217,
      "simultaneously</w>": 5218,
      "improved</w>": 5219,
      "movement</w>": 5220,
      "ingu": 5221,
      "repor": 5222,
      "felt</w>": 5223,
      "rational</w>": 5224,
      "demonstrate</w>": 5225,
      ")}": 5226,
      "ades</w>": 5227,
      "ptions</w>": 5228,
      "Encour": 5229,
      "town</w>": 5230,
      "curiosity</w>": 5231,
      "compas": 5232,
      "Del": 5233,
      "inner</w>": 5234,
      "ership</w>": 5235,
      "image</w>": 5236,
      "creative</w>": 5237,
      "ox": 5238,
      "ray</w>": 5239,
      "powers</w>": 5240,
      "respective</w>": 5241,
      "definition</w>": 5242,
      "hic</w>": 5243,
      "minutes</w>": 5244,
      "nect</w>": 5245,
      "Sy": 5246,
      "post</w>": 5247,
      "growing</w>": 5248,
      "mission</w>": 5249,
      "improvement</w>": 5250,
      "celebr": 5251,
      "tain": 5252,
      "hope</w>": 5253,
      "ules</w>": 5254,
      "dise": 5255,
      "Have</w>": 5256,
      "demand</w>": 5257,
      "great</w>": 5258,
      "empathy</w>": 5259,
      "poses</w>": 5260,
      "figure</w>": 5261,
      "patience</w>": 5262,
      "notice</w>": 5263,
      "acting</w>": 5264,
      "thre": 5265,
      "limits</w>": 5266,
      "ask</w>": 5267,
      "companies</w>": 5268,
      "imag": 5269,
      "micro": 5270,
      "dedic": 5271,
      "board</w>": 5272,
      "thought": 5273,
      "accep": 5274,
      "holds</w>": 5275,
      "hair</w>": 5276,
      "Eff": 5277,
      "qq": 5278,
      "rs</w>": 5279,
      "redi": 5280,
      "elings</w>": 5281,
      "capac": 5282,
      "breaking</w>": 5283,
      "Bl": 5284,
      "tra</w>": 5285,
      "Tr": 5286,
      "Dec": 5287,
      "decre": 5288,
      "Pr": 5289,
      "region</w>": 5290,
      "children</w>": 5291,
      "moment</w>": 5292,
      "Avoid</w>": 5293,
      "astic</w>": 5294,
      "spir": 5295,
      "rect": 5296,
      "mathbf</w>": 5297,
      "3x</w>": 5298,
      "7u": 5299,
      "external</w>": 5300,
      "lity</w>": 5301,
      "ired</w>": 5302,
      "bud": 5303,
      "selecting</w>": 5304,
      "jus": 5305,
      "emotions</w>": 5306,
      "advoc": 5307,
      "hidden</w>": 5308,
      "mid": 5309,
      "turned</w>": 5310,
      "scientific</w>": 5311,
      "inequality</w>": 5312,
      "review</w>": 5313,
      "scal": 5314,
      "ingredi": 5315,
      "According</w>": 5316,
      "neur": 5317,
      "guidance</w>": 5318,
      "prote": 5319,
      "alongside</w>": 5320,
      "Gen": 5321,
      "increases</w>": 5322,
      "general</w>": 5323,
      "flow</w>": 5324,
      "created</w>": 5325,
      "average</w>": 5326,
      "styles</w>": 5327,
      "viol": 5328,
      "became</w>": 5329,
      "eyes</w>": 5330,
      "Maint": 5331,
      "Suppose</w>": 5332,
      "nit": 5333,
      "canc": 5334,
      "technique</w>": 5335,
      "harmon": 5336,
      "favorite</w>": 5337,
      "fres": 5338,
      "scri": 5339,
      "keeping</w>": 5340,
      "complexity</w>": 5341,
      "hon": 5342,
      "apping</w>": 5343,
      "chain</w>": 5344,
      "loved</w>": 5345,
      "genu": 5346,
      "colors</w>": 5347,
      "ion</w>": 5348,
      "enting</w>": 5349,
      "damage</w>": 5350,
      "((</w>": 5351,
      "talk</w>": 5352,
      "Le": 5353,
      "gri": 5354,
      "Mr</w>": 5355,
      "divide</w>": 5356,
      "neigh": 5357,
      "experienced</w>": 5358,
      "16</w>": 5359,
      "rein": 5360,
      "ifying</w>": 5361,
      ".$$</w>": 5362,
      "teach": 5363,
      "advanc": 5364,
      "amb": 5365,
      "199": 5366,
      "dynamic</w>": 5367,
      "traction</w>": 5368,
      "multiplication</w>": 5369,
      "flu": 5370,
      "ket</w>": 5371,
      "alle": 5372,
      "Adv": 5373,
      "Throughout</w>": 5374,
      "Lear": 5375,
      "minimize</w>": 5376,
      "indeed</w>": 5377,
      "played</w>": 5378,
      "women</w>": 5379,
      "fric": 5380,
      "gender</w>": 5381,
      "Ser": 5382,
      "hands</w>": 5383,
      "feelings</w>": 5384,
      "initially</w>": 5385,
      "extract</w>": 5386,
      "added</w>": 5387,
      "brand</w>": 5388,
      "discussing</w>": 5389,
      "safe</w>": 5390,
      "novel</w>": 5391,
      "ange</w>": 5392,
      "networks</w>": 5393,
      "tise</w>": 5394,
      "contact</w>": 5395,
      "draw": 5396,
      "math</w>": 5397,
      "iness</w>": 5398,
      "domain</w>": 5399,
      "shes</w>": 5400,
      "ext": 5401,
      "ials</w>": 5402,
      "sub</w>": 5403,
      "med</w>": 5404,
      "posure</w>": 5405,
      "dt</w>": 5406,
      "polynomial</w>": 5407,
      "tips</w>": 5408,
      "consequences</w>": 5409,
      "Cul": 5410,
      "secre": 5411,
      "whose</w>": 5412,
      "Inte": 5413,
      "tut": 5414,
      "alth</w>": 5415,
      "Strateg": 5416,
      "outh</w>": 5417,
      "collective</w>": 5418,
      "Identify</w>": 5419,
      "11</w>": 5420,
      "ster</w>": 5421,
      "define</w>": 5422,
      "perform</w>": 5423,
      "Chin": 5424,
      "manag": 5425,
      "argum": 5426,
      "advantages</w>": 5427,
      "educational</w>": 5428,
      "thoughts</w>": 5429,
      "contribu": 5430,
      "travel</w>": 5431,
      "getting</w>": 5432,
      "ectively</w>": 5433,
      "discussion</w>": 5434,
      "closely</w>": 5435,
      "heat</w>": 5436,
      "practicing</w>": 5437,
      "maximum</w>": 5438,
      "classi": 5439,
      "ech</w>": 5440,
      "Such</w>": 5441,
      "limited</w>": 5442,
      "theoretical</w>": 5443,
      "em</w>": 5444,
      "consideration</w>": 5445,
      "gets</w>": 5446,
      "eral</w>": 5447,
      "leaving</w>": 5448,
      "wis": 5449,
      "vertical</w>": 5450,
      "sustainable</w>": 5451,
      "well": 5452,
      "compli": 5453,
      "ath": 5454,
      "holders</w>": 5455,
      "giving</w>": 5456,
      "vil": 5457,
      "flav": 5458,
      "live</w>": 5459,
      "signs</w>": 5460,
      "hic": 5461,
      "applied</w>": 5462,
      "Rel": 5463,
      "relative</w>": 5464,
      "decimal</w>": 5465,
      "necessit": 5466,
      "ata</w>": 5467,
      "posite</w>": 5468,
      "hun": 5469,
      "inj": 5470,
      "causing</w>": 5471,
      "recognizing</w>": 5472,
      "----</w>": 5473,
      "draw</w>": 5474,
      "brow": 5475,
      "pt": 5476,
      "institutions</w>": 5477,
      "mind": 5478,
      "pay": 5479,
      "rement</w>": 5480,
      "patient</w>": 5481,
      "determining</w>": 5482,
      "cutting</w>": 5483,
      "studying</w>": 5484,
      "sparen": 5485,
      "Over</w>": 5486,
      "reput": 5487,
      "dedicated</w>": 5488,
      "}(</w>": 5489,
      "dering</w>": 5490,
      "sched": 5491,
      "income</w>": 5492,
      "xes</w>": 5493,
      "implementing</w>": 5494,
      "actual</w>": 5495,
      "pen": 5496,
      "soft</w>": 5497,
      "beautiful</w>": 5498,
      "shows</w>": 5499,
      "reflect</w>": 5500,
      "literature</w>": 5501,
      "represented</w>": 5502,
      "prepar": 5503,
      "correct</w>": 5504,
      "nutri": 5505,
      "versi": 5506,
      "Cal": 5507,
      "vibr": 5508,
      "Mz": 5509,
      "bring</w>": 5510,
      "evaluate</w>": 5511,
      "prove</w>": 5512,
      "absol": 5513,
      "ian</w>": 5514,
      "Examples</w>": 5515,
      "ellig": 5516,
      "objectives</w>": 5517,
      "rics</w>": 5518,
      "Whe": 5519,
      "Utili": 5520,
      "bing</w>": 5521,
      "stability</w>": 5522,
      "themes</w>": 5523,
      "Euro": 5524,
      "Set</w>": 5525,
      "contributing</w>": 5526,
      "sales</w>": 5527,
      "search</w>": 5528,
      "var": 5529,
      "denotes</w>": 5530,
      "output</w>": 5531,
      "paramet": 5532,
      "Har": 5533,
      "pan": 5534,
      "forming</w>": 5535,
      "standards</w>": 5536,
      "eled</w>": 5537,
      "degre": 5538,
      "source</w>": 5539,
      "integer</w>": 5540,
      "psych": 5541,
      "fellow</w>": 5542,
      "audience</w>": 5543,
      "Sta": 5544,
      "pt</w>": 5545,
      "parties</w>": 5546,
      "algebra": 5547,
      "Case</w>": 5548,
      "focused</w>": 5549,
      "tiveness</w>": 5550,
      "degrees</w>": 5551,
      "magical</w>": 5552,
      "tac": 5553,
      "societal</w>": 5554,
      "cause</w>": 5555,
      "platform</w>": 5556,
      "object</w>": 5557,
      "path</w>": 5558,
      "facturing</w>": 5559,
      "summary</w>": 5560,
      "was": 5561,
      "ights</w>": 5562,
      "ghly</w>": 5563,
      "/(</w>": 5564,
      "asts</w>": 5565,
      "student</w>": 5566,
      "Ul": 5567,
      "quadratic</w>": 5568,
      "Est": 5569,
      "dividing</w>": 5570,
      "efs</w>": 5571,
      "actually</w>": 5572,
      "esthe": 5573,
      "ensity</w>": 5574,
      "7u7u": 5575,
      "uting</w>": 5576,
      "dle</w>": 5577,
      "sian</w>": 5578,
      "worth</w>": 5579,
      "strong": 5580,
      "learly</w>": 5581,
      "ditions</w>": 5582,
      "expertise</w>": 5583,
      "Create</w>": 5584,
      "six</w>": 5585,
      "reduced</w>": 5586,
      "usage</w>": 5587,
      "tered</w>": 5588,
      "firm</w>": 5589,
      "books</w>": 5590,
      "surpri": 5591,
      "suppl": 5592,
      "Applying</w>": 5593,
      "ampl": 5594,
      "produce</w>": 5595,
      "exercise</w>": 5596,
      "His</w>": 5597,
      "grow</w>": 5598,
      "musi": 5599,
      "capabilities</w>": 5600,
      "depth</w>": 5601,
      "seek</w>": 5602,
      "initiatives</w>": 5603,
      "sessions</w>": 5604,
      "reson": 5605,
      "followed</w>": 5606,
      "choosing</w>": 5607,
      "pression</w>": 5608,
      "multiplying</w>": 5609,
      "transformation</w>": 5610,
      "video</w>": 5611,
      "conversation</w>": 5612,
      "couldn</w>": 5613,
      "ger</w>": 5614,
      "Given</w>": 5615,
      "restric": 5616,
      "mutual</w>": 5617,
      "vity</w>": 5618,
      "ites</w>": 5619,
      "achieve</w>": 5620,
      "entional</w>": 5621,
      "goes</w>": 5622,
      "familiar</w>": 5623,
      "icious</w>": 5624,
      "remaining</w>": 5625,
      "III</w>": 5626,
      "itting</w>": 5627,
      "icated</w>": 5628,
      "thesis</w>": 5629,
      "tend</w>": 5630,
      "third</w>": 5631,
      "bodies</w>": 5632,
      "pairs</w>": 5633,
      "ife</w>": 5634,
      "slightly</w>": 5635,
      "concerning</w>": 5636,
      "evolving</w>": 5637,
      "sav": 5638,
      "than": 5639,
      "expon": 5640,
      "accurately</w>": 5641,
      "contex": 5642,
      "install": 5643,
      "matters</w>": 5644,
      "dialogue</w>": 5645,
      "excep": 5646,
      "enance</w>": 5647,
      "super": 5648,
      "erred</w>": 5649,
      "thri": 5650,
      "movements</w>": 5651,
      "explored</w>": 5652,
      "gree</w>": 5653,
      "feet</w>": 5654,
      "limitations</w>": 5655,
      "Firstly</w>": 5656,
      "accuracy</w>": 5657,
      "car</w>": 5658,
      "ded": 5659,
      "behaviors</w>": 5660,
      "orders</w>": 5661,
      "knowing</w>": 5662,
      "performing</w>": 5663,
      "Establi": 5664,
      "enter": 5665,
      "night</w>": 5666,
      "whereas</w>": 5667,
      "took</w>": 5668,
      "notic": 5669,
      "MzMz": 5670,
      "store</w>": 5671,
      "characters</w>": 5672,
      "suggest": 5673,
      "stitute</w>": 5674,
      "improving</w>": 5675,
      "etic</w>": 5676,
      "symmet": 5677,
      "world": 5678,
      "perc": 5679,
      "foot": 5680,
      "Christi": 5681,
      "Bi": 5682,
      "lived</w>": 5683,
      "tries</w>": 5684,
      "emerging</w>": 5685,
      "likely</w>": 5686,
      "ock</w>": 5687,
      "career</w>": 5688,
      "Defin": 5689,
      "cool</w>": 5690,
      "realm</w>": 5691,
      "oral</w>": 5692,
      "regularly</w>": 5693,
      "investment</w>": 5694,
      "sine</w>": 5695,
      "urren": 5696,
      "Up": 5697,
      "evaluating</w>": 5698,
      "abol": 5699,
      "Mean": 5700,
      "protection</w>": 5701,
      "perspective</w>": 5702,
      "beaut": 5703,
      "lesson</w>": 5704,
      "Explan": 5705,
      "Fam": 5706,
      "difficult</w>": 5707,
      "ression</w>": 5708,
      "beauty</w>": 5709,
      "lever": 5710,
      "irical</w>": 5711,
      "characteristics</w>": 5712,
      "degree</w>": 5713,
      "Whether</w>": 5714,
      "eration</w>": 5715,
      "fail": 5716,
      "oud</w>": 5717,
      "successfully</w>": 5718,
      "Don</w>": 5719,
      "ourselves</w>": 5720,
      "independent</w>": 5721,
      "component</w>": 5722,
      "laws</w>": 5723,
      "Cri": 5724,
      "}{\\</w>": 5725,
      "wait</w>": 5726,
      "Its</w>": 5727,
      "dur": 5728,
      "promising</w>": 5729,
      "possess</w>": 5730,
      "Explanation</w>": 5731,
      "tial</w>": 5732,
      "migr": 5733,
      "htt": 5734,
      "stake": 5735,
      "IV</w>": 5736,
      "sional</w>": 5737,
      "wi": 5738,
      "discover</w>": 5739,
      "efficiently</w>": 5740,
      "ounded</w>": 5741,
      "mass</w>": 5742,
      "equivalent</w>": 5743,
      "easily</w>": 5744,
      "soon</w>": 5745,
      "highlights</w>": 5746,
      "asking</w>": 5747,
      "Mul": 5748,
      "extra</w>": 5749,
      "faction</w>": 5750,
      "calculations</w>": 5751,
      "alone</w>": 5752,
      "facilitate</w>": 5753,
      "ratives</w>": 5754,
      "major</w>": 5755,
      "Deter": 5756,
      "molec": 5757,
      "privacy</w>": 5758,
      "transf": 5759,
      "resistance</w>": 5760,
      "illi": 5761,
      "sections</w>": 5762,
      "collection</w>": 5763,
      "marily</w>": 5764,
      "://</w>": 5765,
      "turing</w>": 5766,
      "trying</w>": 5767,
      "sequent</w>": 5768,
      "choice</w>": 5769,
      "Always</w>": 5770,
      "icity</w>": 5771,
      "Analysis</w>": 5772,
      "Ab": 5773,
      "interesting</w>": 5774,
      "else</w>": 5775,
      "dimensions</w>": 5776,
      "ak</w>": 5777,
      "tiz": 5778,
      "gs</w>": 5779,
      "assess": 5780,
      "protect</w>": 5781,
      "eria</w>": 5782,
      "ln</w>": 5783,
      "constraints</w>": 5784,
      "circumstances</w>": 5785,
      "log</w>": 5786,
      "seam": 5787,
      "engineering</w>": 5788,
      "equipment</w>": 5789,
      "tast": 5790,
      "applic": 5791,
      "resource</w>": 5792,
      "regardless</w>": 5793,
      "infty</w>": 5794,
      "combining</w>": 5795,
      "network</w>": 5796,
      "aint</w>": 5797,
      "ratio</w>": 5798,
      "ests</w>": 5799,
      "happens</w>": 5800,
      "bul": 5801,
      "icing</w>": 5802,
      "animals</w>": 5803,
      "plane</w>": 5804,
      "transparen": 5805,
      "obta": 5806,
      "scores</w>": 5807,
      "connecting</w>": 5808,
      "creation</w>": 5809,
      "manage</w>": 5810,
      "surance</w>": 5811,
      "campa": 5812,
      "Off": 5813,
      "strength</w>": 5814,
      "Time</w>": 5815,
      "\\,</w>": 5816,
      "mon</w>": 5817,
      "annels</w>": 5818,
      "integrating</w>": 5819,
      "com</w>": 5820,
      "clean</w>": 5821,
      "primarily</w>": 5822,
      "listening</w>": 5823,
      "helping</w>": 5824,
      "navigating</w>": 5825,
      "datas": 5826,
      "effort</w>": 5827,
      "background</w>": 5828,
      "built</w>": 5829,
      "perim": 5830,
      "yield</w>": 5831,
      "friendly</w>": 5832,
      "markets</w>": 5833,
      "kind</w>": 5834,
      "sn": 5835,
      "ahead</w>": 5836,
      "fosters</w>": 5837,
      "moments</w>": 5838,
      "cro": 5839,
      "ions</w>": 5840,
      "ior</w>": 5841,
      "pattern</w>": 5842,
      "absolute</w>": 5843,
      "presence</w>": 5844,
      "advancements</w>": 5845,
      ":*</w>": 5846,
      "perp": 5847,
      "includes</w>": 5848,
      "loss</w>": 5849,
      "archit": 5850,
      "Both</w>": 5851,
      "crit": 5852,
      "Cle": 5853,
      "central</w>": 5854,
      "climate</w>": 5855,
      "code</w>": 5856,
      "vehic": 5857,
      "substan": 5858,
      "tom</w>": 5859,
      "artists</w>": 5860,
      "technological</w>": 5861,
      "normal</w>": 5862,
      "front</w>": 5863,
      "exposure</w>": 5864,
      "marg": 5865,
      "worry</w>": 5866,
      "therwise</w>": 5867,
      "World</w>": 5868,
      "encounter</w>": 5869,
      "anci": 5870,
      "Ear": 5871,
      "compute</w>": 5872,
      "algebraic</w>": 5873,
      "Ba": 5874,
      "ented</w>": 5875,
      "teams</w>": 5876,
      "curious</w>": 5877,
      "enjoy": 5878,
      "blocks</w>": 5879,
      "party</w>": 5880,
      "notable</w>": 5881,
      "testing</w>": 5882,
      "benefit</w>": 5883,
      "reflection</w>": 5884,
      "mastering</w>": 5885,
      "acks</w>": 5886,
      "regulations</w>": 5887,
      "academic</w>": 5888,
      "colum": 5889,
      "Au": 5890,
      "learners</w>": 5891,
      "Pers": 5892,
      "illing</w>": 5893,
      "random</w>": 5894,
      "Sam": 5895,
      "adh": 5896,
      "phil": 5897,
      "tici": 5898,
      "affect</w>": 5899,
      "participants</w>": 5900,
      "vals</w>": 5901,
      "fast</w>": 5902,
      "preserving</w>": 5903,
      "myst": 5904,
      "becoming</w>": 5905,
      "wasn</w>": 5906,
      "vectors</w>": 5907,
      "ju": 5908,
      "machine</w>": 5909,
      "encourage</w>": 5910,
      "pping</w>": 5911,
      "responsibility</w>": 5912,
      "satisfaction</w>": 5913,
      "plans</w>": 5914,
      "lood</w>": 5915,
      "expressed</w>": 5916,
      "connect</w>": 5917,
      "longer</w>": 5918,
      "ulner": 5919,
      "narratives</w>": 5920,
      "Na": 5921,
      "looked</w>": 5922,
      "ranging</w>": 5923,
      "elim": 5924,
      "Goo": 5925,
      "ern</w>": 5926,
      "cogn": 5927,
      "driving</w>": 5928,
      "lem": 5929,
      "21</w>": 5930,
      "possibilities</w>": 5931,
      "arities</w>": 5932,
      "condition</w>": 5933,
      "Meanwhile</w>": 5934,
      "frequently</w>": 5935,
      "didn</w>": 5936,
      "flo": 5937,
      "horizontal</w>": 5938,
      "charg": 5939,
      "designs</w>": 5940,
      "child</w>": 5941,
      "responses</w>": 5942,
      "itig": 5943,
      "May": 5944,
      "rise</w>": 5945,
      "essive</w>": 5946,
      "tices</w>": 5947,
      "xi": 5948,
      "bit": 5949,
      "audiences</w>": 5950,
      "Ta": 5951,
      "ums</w>": 5952,
      "secure</w>": 5953,
      "amm": 5954,
      "suitable</w>": 5955,
      "tackle</w>": 5956,
      "she": 5957,
      "ticul": 5958,
      "AAAAAAAAAAAAAAAA": 5959,
      "presented</w>": 5960,
      "agg": 5961,
      "revol": 5962,
      "event": 5963,
      "strum": 5964,
      "intellig": 5965,
      "taken</w>": 5966,
      "ti</w>": 5967,
      "aste</w>": 5968,
      "My</w>": 5969,
      "Dr</w>": 5970,
      "element</w>": 5971,
      "atter": 5972,
      "subsequent</w>": 5973,
      "prices</w>": 5974,
      "exercises</w>": 5975,
      "straight</w>": 5976,
      "ingredients</w>": 5977,
      "domin": 5978,
      "ier</w>": 5979,
      "Typ": 5980,
      "gained</w>": 5981,
      "toys</w>": 5982,
      "multiply</w>": 5983,
      "graphic</w>": 5984,
      "excell": 5985,
      "expan": 5986,
      "recognize</w>": 5987,
      "spe": 5988,
      "leadership</w>": 5989,
      "guar": 5990,
      "task</w>": 5991,
      "count": 5992,
      "dedication</w>": 5993,
      "handling</w>": 5994,
      "flexibility</w>": 5995,
      "dia</w>": 5996,
      "}$.</w>": 5997,
      "https</w>": 5998,
      "lock</w>": 5999,
      "Appro": 6000,
      "smooth</w>": 6001,
      "refin": 6002,
      "isol": 6003,
      "operation</w>": 6004,
      "consistency</w>": 6005,
      "relations</w>": 6006,
      "ulation</w>": 6007,
      "trade</w>": 6008,
      "highlighting</w>": 6009,
      "division</w>": 6010,
      "actively</w>": 6011,
      "sho": 6012,
      "justice</w>": 6013,
      "}}</w>": 6014,
      "erely</w>": 6015,
      "iration</w>": 6016,
      "Inv": 6017,
      "leaders</w>": 6018,
      "vs</w>": 6019,
      "placement</w>": 6020,
      "stakeholders</w>": 6021,
      "}^{</w>": 6022,
      "channels</w>": 6023,
      "date</w>": 6024,
      "itoring</w>": 6025,
      "purpose</w>": 6026,
      "algorithms</w>": 6027,
      "stronger</w>": 6028,
      "excit": 6029,
      "control": 6030,
      "diving</w>": 6031,
      "ream</w>": 6032,
      "fact</w>": 6033,
      "stration</w>": 6034,
      "separate</w>": 6035,
      "varying</w>": 6036,
      "assess</w>": 6037,
      "acknowled": 6038,
      "idi": 6039,
      "ky</w>": 6040,
      "discovery</w>": 6041,
      "milli": 6042,
      "wellbeing</w>": 6043,
      "genuine</w>": 6044,
      "Ver": 6045,
      "internal</w>": 6046,
      "appearance</w>": 6047,
      "ancy</w>": 6048,
      "bin": 6049,
      "vulner": 6050,
      "yt": 6051,
      "scr": 6052,
      "reven": 6053,
      "ordinary</w>": 6054,
      "explic": 6055,
      "ign": 6056,
      "pet</w>": 6057,
      "',</w>": 6058,
      "bran": 6059,
      "bles</w>": 6060,
      "stands</w>": 6061,
      "worldwide</w>": 6062,
      "regions</w>": 6063,
      "labor</w>": 6064,
      "bled</w>": 6065,
      "reaching</w>": 6066,
      "offered</w>": 6067,
      "aesthe": 6068,
      "achieving</w>": 6069,
      "capacity</w>": 6070,
      "stic": 6071,
      "website</w>": 6072,
      "ounts</w>": 6073,
      "processing</w>": 6074,
      "apart</w>": 6075,
      "readers</w>": 6076,
      "que</w>": 6077,
      "considerations</w>": 6078,
      "Sc": 6079,
      "At": 6080,
      "knew</w>": 6081,
      "era</w>": 6082,
      "arily</w>": 6083,
      "intercep": 6084,
      "Ultimately</w>": 6085,
      "cultures</w>": 6086,
      "manufacturing</w>": 6087,
      "Fo": 6088,
      "Loc": 6089,
      "combined</w>": 6090,
      "places</w>": 6091,
      "tutorial</w>": 6092,
      "acies</w>": 6093,
      "^{-</w>": 6094,
      "commod": 6095,
      "Note</w>": 6096,
      "coordinate</w>": 6097,
      "barri": 6098,
      "press</w>": 6099,
      "prioritize</w>": 6100,
      "God</w>": 6101,
      "figures</w>": 6102,
      "gently</w>": 6103,
      "program</w>": 6104,
      "generate</w>": 6105,
      "Ii": 6106,
      "nment</w>": 6107,
      "introduce</w>": 6108,
      "clients</w>": 6109,
      "seen</w>": 6110,
      "generations</w>": 6111,
      "ees</w>": 6112,
      "categories</w>": 6113,
      "already</w>": 6114,
      "heard</w>": 6115,
      "*}</w>": 6116,
      "scenario</w>": 6117,
      "uries</w>": 6118,
      "tribut": 6119,
      "sphere</w>": 6120,
      "repl": 6121,
      "white</w>": 6122,
      "config": 6123,
      "encourages</w>": 6124,
      "Timmy</w>": 6125,
      "sufficient</w>": 6126,
      "practical</w>": 6127,
      "cover</w>": 6128,
      "populations</w>": 6129,
      "phenomena</w>": 6130,
      "distribut": 6131,
      "---": 6132,
      "extre": 6133,
      "ocity</w>": 6134,
      "investigation</w>": 6135,
      "competition</w>": 6136,
      "return</w>": 6137,
      "persist": 6138,
      "system": 6139,
      "facing</w>": 6140,
      "post": 6141,
      "impacts</w>": 6142,
      "stream": 6143,
      "}$$</w>": 6144,
      "bir": 6145,
      "timate</w>": 6146,
      "Char": 6147,
      "famil": 6148,
      "option</w>": 6149,
      "che": 6150,
      "diagno": 6151,
      "frameworks</w>": 6152,
      "mitig": 6153,
      "instrum": 6154,
      "scholars</w>": 6155,
      "recall</w>": 6156,
      "noticed</w>": 6157,
      "utilizing</w>": 6158,
      "head": 6159,
      "speaking</w>": 6160,
      "stract</w>": 6161,
      "Google</w>": 6162,
      "See": 6163,
      "dge</w>": 6164,
      "magne": 6165,
      "stac": 6166,
      "previously</w>": 6167,
      "parents</w>": 6168,
      "sult</w>": 6169,
      "enly</w>": 6170,
      "compati": 6171,
      "therapy</w>": 6172,
      "alph": 6173,
      "supporting</w>": 6174,
      "promise</w>": 6175,
      "status</w>": 6176,
      "pit": 6177,
      "detail": 6178,
      "oid": 6179,
      "ensive</w>": 6180,
      "arise</w>": 6181,
      "pon": 6182,
      "Bal": 6183,
      "lu": 6184,
      "candid": 6185,
      "nel</w>": 6186,
      "statement</w>": 6187,
      "intri": 6188,
      "device</w>": 6189,
      "countries</w>": 6190,
      "Emb": 6191,
      "reduces</w>": 6192,
      "citiz": 6193,
      "consistently</w>": 6194,
      "air": 6195,
      "fresh</w>": 6196,
      "feeling</w>": 6197,
      "allel</w>": 6198,
      "tracting</w>": 6199,
      "periods</w>": 6200,
      "dry</w>": 6201,
      "won</w>": 6202,
      "procedures</w>": 6203,
      "complicated</w>": 6204,
      "Data</w>": 6205,
      "Together</w>": 6206,
      "ssu": 6207,
      "ags</w>": 6208,
      "prime</w>": 6209,
      "demonstrates</w>": 6210,
      "formed</w>": 6211,
      "player</w>": 6212,
      "wit": 6213,
      "iter": 6214,
      "contributions</w>": 6215,
      "Integr": 6216,
      "beliefs</w>": 6217,
      "exchange</w>": 6218,
      "*(</w>": 6219,
      "Find</w>": 6220,
      "critically</w>": 6221,
      "bas": 6222,
      "quite</w>": 6223,
      "eding</w>": 6224,
      "Afric": 6225,
      "blue</w>": 6226,
      "profound</w>": 6227,
      "24</w>": 6228,
      "demands</w>": 6229,
      "oil</w>": 6230,
      "posing</w>": 6231,
      "partner": 6232,
      "located</w>": 6233,
      "page</w>": 6234,
      "rought</w>": 6235,
      "quantities</w>": 6236,
      "raw</w>": 6237,
      "Num": 6238,
      "da</w>": 6239,
      "nur": 6240,
      "ils</w>": 6241,
      "occur</w>": 6242,
      "smoo": 6243,
      "width</w>": 6244,
      "ified</w>": 6245,
      "eply</w>": 6246,
      "affor": 6247,
      "enhanced</w>": 6248,
      "physics</w>": 6249,
      "house</w>": 6250,
      "ushing</w>": 6251,
      "vide</w>": 6252,
      "technical</w>": 6253,
      "arts</w>": 6254,
      "dest": 6255,
      "warm</w>": 6256,
      "patients</w>": 6257,
      "Ge": 6258,
      "select</w>": 6259,
      "Refl": 6260,
      "haps</w>": 6261,
      "otherwise</w>": 6262,
      "mathbb</w>": 6263,
      "atically</w>": 6264,
      "maintenance</w>": 6265,
      "months</w>": 6266,
      "contributes</w>": 6267,
      "strengths</w>": 6268,
      "subject</w>": 6269,
      "incredi": 6270,
      "useful</w>": 6271,
      "ricul": 6272,
      "40</w>": 6273,
      "Cor": 6274,
      "vast</w>": 6275,
      "cular</w>": 6276,
      "stum": 6277,
      "vibrant</w>": 6278,
      "ante": 6279,
      "clin": 6280,
      "swe": 6281,
      "plants</w>": 6282,
      "Building</w>": 6283,
      "bra</w>": 6284,
      "IiIi": 6285,
      "soph": 6286,
      "species</w>": 6287,
      "ellec": 6288,
      "ideal</w>": 6289,
      "errors</w>": 6290,
      "makers</w>": 6291,
      "running</w>": 6292,
      "pressing</w>": 6293,
      "ured</w>": 6294,
      "computing</w>": 6295,
      "consumers</w>": 6296,
      "10": 6297,
      "thly</w>": 6298,
      "deeply</w>": 6299,
      "veg": 6300,
      "considered</w>": 6301,
      "simplify</w>": 6302,
      "sensitive</w>": 6303,
      "Social</w>": 6304,
      "country</w>": 6305,
      "comprehension</w>": 6306,
      "competitive</w>": 6307,
      "developments</w>": 6308,
      "ron": 6309,
      "Fi": 6310,
      "images</w>": 6311,
      "concentr": 6312,
      "file</w>": 6313,
      "secon": 6314,
      "lessly</w>": 6315,
      "error</w>": 6316,
      "We": 6317,
      "feature</w>": 6318,
      "screen</w>": 6319,
      "Is</w>": 6320,
      "Multi": 6321,
      "thorough</w>": 6322,
      "architec": 6323,
      "ville</w>": 6324,
      "Look</w>": 6325,
      "exponential</w>": 6326,
      "urb": 6327,
      "derived</w>": 6328,
      "frequency</w>": 6329,
      "etary</w>": 6330,
      "tell</w>": 6331,
      "plot</w>": 6332,
      "cau": 6333,
      "examination</w>": 6334,
      "specialized</w>": 6335,
      "United</w>": 6336,
      "countless</w>": 6337,
      "demonstrated</w>": 6338,
      "$)</w>": 6339,
      "employment</w>": 6340,
      "debates</w>": 6341,
      "score</w>": 6342,
      "selection</w>": 6343,
      "observe</w>": 6344,
      "cell</w>": 6345,
      "dots</w>": 6346,
      "politics</w>": 6347,
      "Regularly</w>": 6348,
      "pack": 6349,
      "istic": 6350,
      "occurs</w>": 6351,
      "AI</w>": 6352,
      "chapter</w>": 6353,
      "insight</w>": 6354,
      "tap": 6355,
      "late</w>": 6356,
      "ome": 6357,
      "spar": 6358,
      "life": 6359,
      "roc": 6360,
      "rop": 6361,
      "immer": 6362,
      "eties</w>": 6363,
      "message</w>": 6364,
      "visit</w>": 6365,
      "Organ": 6366,
      "ram": 6367,
      "Ra": 6368,
      "comparing</w>": 6369,
      "bust": 6370,
      "door</w>": 6371,
      "osoph": 6372,
      "quantity</w>": 6373,
      "ography</w>": 6374,
      "sustainability</w>": 6375,
      "Sm": 6376,
      "vic": 6377,
      "Jamie</w>": 6378,
      "opin": 6379,
      "derivatives</w>": 6380,
      "chi": 6381,
      "creates</w>": 6382,
      "wind": 6383,
      "Study</w>": 6384,
      "sophistic": 6385,
      ")$,</w>": 6386,
      "75</w>": 6387,
      "governing</w>": 6388,
      "velocity</w>": 6389,
      ");</w>": 6390,
      "198": 6391,
      "affecting</w>": 6392,
      "Compl": 6393,
      "norms</w>": 6394,
      "email</w>": 6395,
      "Metho": 6396,
      "ler</w>": 6397,
      "interaction</w>": 6398,
      "functional</w>": 6399,
      "employing</w>": 6400,
      "vers</w>": 6401,
      "toy</w>": 6402,
      "sens": 6403,
      "geometric</w>": 6404,
      "bar</w>": 6405,
      "assign": 6406,
      "help": 6407,
      "^{\\</w>": 6408,
      "trust": 6409,
      "load</w>": 6410,
      "parallel</w>": 6411,
      "feat": 6412,
      "}^</w>": 6413,
      "phone</w>": 6414,
      "vering</w>": 6415,
      "suppose</w>": 6416,
      "Fig": 6417,
      "compare</w>": 6418,
      "religious</w>": 6419,
      "efficients</w>": 6420,
      "walk</w>": 6421,
      "tif": 6422,
      "run</w>": 6423,
      "statistical</w>": 6424,
      "version</w>": 6425,
      "ewel": 6426,
      "explan": 6427,
      "detail</w>": 6428,
      "blood</w>": 6429,
      "vent": 6430,
      "private</w>": 6431,
      "'.</w>": 6432,
      "expand</w>": 6433,
      "minimizing</w>": 6434,
      "anxi": 6435,
      "^(</w>": 6436,
      "developed</w>": 6437,
      "turning</w>": 6438,
      "oughly</w>": 6439,
      "instances</w>": 6440,
      "Evalu": 6441,
      "Nor": 6442,
      "double</w>": 6443,
      "activ": 6444,
      "bio": 6445,
      "web</w>": 6446,
      "CO": 6447,
      "mer</w>": 6448,
      "qual": 6449,
      "guarante": 6450,
      "eries</w>": 6451,
      "ol</w>": 6452,
      "empirical</w>": 6453,
      "Calcul": 6454,
      "18</w>": 6455,
      "fair</w>": 6456,
      "rimin": 6457,
      "craft</w>": 6458,
      "intu": 6459,
      "scientists</w>": 6460,
      "green</w>": 6461,
      "conventional</w>": 6462,
      "supply</w>": 6463,
      "bon</w>": 6464,
      "waiting</w>": 6465,
      "transportation</w>": 6466,
      "valid": 6467,
      "lasting</w>": 6468,
      "employed</w>": 6469,
      "Non": 6470,
      "functionality</w>": 6471,
      "intervals</w>": 6472,
      "joy</w>": 6473,
      "whel": 6474,
      "saw</w>": 6475,
      "consumption</w>": 6476,
      "Foc": 6477,
      "receive</w>": 6478,
      "sus</w>": 6479,
      "discussed</w>": 6480,
      "introduced</w>": 6481,
      "sleep</w>": 6482,
      "sli": 6483,
      "exclu": 6484,
      "iles</w>": 6485,
      "eag": 6486,
      "merely</w>": 6487,
      "scho": 6488,
      "spirit": 6489,
      ")$.</w>": 6490,
      "constan": 6491,
      "reality</w>": 6492,
      "Chapter</w>": 6493,
      "construction</w>": 6494,
      "Rep": 6495,
      "ease</w>": 6496,
      "ori": 6497,
      "Stay</w>": 6498,
      "dru": 6499,
      "national</w>": 6500,
      "century</w>": 6501,
      "accommod": 6502,
      "storage</w>": 6503,
      "combinations</w>": 6504,
      "anning</w>": 6505,
      "rich": 6506,
      "ification</w>": 6507,
      "ementary</w>": 6508,
      "evolution</w>": 6509,
      "ap</w>": 6510,
      "ogen": 6511,
      "conveni": 6512,
      "assistance</w>": 6513,
      "Equ": 6514,
      "gen</w>": 6515,
      "discrimin": 6516,
      "oti": 6517,
      "brought</w>": 6518,
      "inate</w>": 6519,
      "messages</w>": 6520,
      "locate</w>": 6521,
      "$:</w>": 6522,
      "relation</w>": 6523,
      "recip": 6524,
      "appears</w>": 6525,
      "shift</w>": 6526,
      "enhances</w>": 6527,
      "sounds</w>": 6528,
      "inverse</w>": 6529,
      "industries</w>": 6530,
      "omials</w>": 6531,
      "amming</w>": 6532,
      "Start</w>": 6533,
      "coefficients</w>": 6534,
      "cus": 6535,
      "seemed</w>": 6536,
      "numerator</w>": 6537,
      "bed": 6538,
      "determined</w>": 6539,
      "90</w>": 6540,
      "zation</w>": 6541,
      "versati": 6542,
      "sports</w>": 6543,
      "accel": 6544,
      "iction</w>": 6545,
      "caused</w>": 6546,
      "immediately</w>": 6547,
      "13</w>": 6548,
      "extensive</w>": 6549,
      "criteria</w>": 6550,
      "families</w>": 6551,
      "waste</w>": 6552,
      "Max</w>": 6553,
      "contexts</w>": 6554,
      "looks</w>": 6555,
      "match</w>": 6556,
      "intrigu": 6557,
      "meeting</w>": 6558,
      "elihood</w>": 6559,
      "ama": 6560,
      "argue</w>": 6561,
      "Two</w>": 6562,
      "Earth</w>": 6563,
      "infra": 6564,
      "intelligence</w>": 6565,
      "centered</w>": 6566,
      "tan</w>": 6567,
      "really</w>": 6568,
      "tex</w>": 6569,
      "democ": 6570,
      "anything</w>": 6571,
      "integers</w>": 6572,
      "Simpl": 6573,
      "atmo": 6574,
      "adjust</w>": 6575,
      "layers</w>": 6576,
      "rig": 6577,
      "Life</w>": 6578,
      "Med": 6579,
      "pain</w>": 6580,
      "{{</w>": 6581,
      "alpha</w>": 6582,
      "triangles</w>": 6583,
      "Design</w>": 6584,
      "tiny</w>": 6585,
      "tory</w>": 6586,
      "ancient</w>": 6587,
      "smar": 6588,
      "stood</w>": 6589,
      "nego": 6590,
      "demonstrating</w>": 6591,
      "substantial</w>": 6592,
      "negoti": 6593,
      "coordinates</w>": 6594,
      "records</w>": 6595,
      "ss": 6596,
      "equipped</w>": 6597,
      "|---": 6598,
      "virtual</w>": 6599,
      "helpful</w>": 6600,
      "reliable</w>": 6601,
      "artistic</w>": 6602,
      "tax</w>": 6603,
      "theorem</w>": 6604,
      "Sur": 6605,
      "join</w>": 6606,
      "Educ": 6607,
      "With": 6608,
      "passion</w>": 6609,
      "entre": 6610,
      "itions</w>": 6611,
      "uncer": 6612,
      "intellec": 6613,
      "memory</w>": 6614,
      "usually</w>": 6615,
      "arize</w>": 6616,
      "moves</w>": 6617,
      "productivity</w>": 6618,
      "path": 6619,
      "puts</w>": 6620,
      "acqui": 6621,
      "consists</w>": 6622,
      "denoted</w>": 6623,
      "logarith": 6624,
      "spread</w>": 6625,
      "Pe": 6626,
      "cognitive</w>": 6627,
      "elev": 6628,
      "reveal</w>": 6629,
      "Take</w>": 6630,
      "spent</w>": 6631,
      "precise</w>": 6632,
      "aligned</w>": 6633,
      "investing</w>": 6634,
      "qualities</w>": 6635,
      "chances</w>": 6636,
      "cooking</w>": 6637,
      "assumptions</w>": 6638,
      "resolution</w>": 6639,
      "cleaning</w>": 6640,
      "lack</w>": 6641,
      "explo": 6642,
      "fall</w>": 6643,
      "contains</w>": 6644,
      "chance</w>": 6645,
      "digit</w>": 6646,
      "entrepre": 6647,
      "essibility</w>": 6648,
      "squares</w>": 6649,
      "consumer</w>": 6650,
      "____": 6651,
      "exact</w>": 6652,
      "corresponds</w>": 6653,
      "glance</w>": 6654,
      "$-</w>": 6655,
      "falls</w>": 6656,
      "tests</w>": 6657,
      "bottom</w>": 6658,
      "inches</w>": 6659,
      "monitoring</w>": 6660,
      "charge</w>": 6661,
      "niche</w>": 6662,
      ".'</w>": 6663,
      "eable</w>": 6664,
      "Chec": 6665,
      "appoint": 6666,
      "},</w>": 6667,
      "tition": 6668,
      "Real</w>": 6669,
      "incorporate</w>": 6670,
      "tangent</w>": 6671,
      "SE": 6672,
      "Collabor": 6673,
      "faster</w>": 6674,
      "ewelry</w>": 6675,
      "adequ": 6676,
      "minimum</w>": 6677,
      "anyone</w>": 6678,
      "relax": 6679,
      "attribut": 6680,
      "college</w>": 6681,
      "x2</w>": 6682,
      "changed</w>": 6683,
      "onomet": 6684,
      "}$,</w>": 6685,
      "14</w>": 6686,
      "lie</w>": 6687,
      "designing</w>": 6688,
      "may": 6689,
      "regional</w>": 6690,
      "inder</w>": 6691,
      "near": 6692,
      "lengths</w>": 6693,
      "America</w>": 6694,
      "fem": 6695,
      "mas": 6696,
      "oot</w>": 6697,
      "habits</w>": 6698,
      "barriers</w>": 6699,
      "weather</w>": 6700,
      "philosoph": 6701,
      "raised</w>": 6702,
      "encouraging</w>": 6703,
      "determination</w>": 6704,
      "shifts</w>": 6705,
      "Encourage</w>": 6706,
      "sizes</w>": 6707,
      "illed</w>": 6708,
      "unch</w>": 6709,
      "opposite</w>": 6710,
      "igns</w>": 6711,
      "lined</w>": 6712,
      "Recogn": 6713,
      "voice</w>": 6714,
      "likelihood</w>": 6715,
      "wear</w>": 6716,
      "ucle": 6717,
      "fear</w>": 6718,
      "divided</w>": 6719,
      "observed</w>": 6720,
      "observations</w>": 6721,
      "allowed</w>": 6722,
      "transparency</w>": 6723,
      "clearly</w>": 6724,
      "fixed</w>": 6725,
      "Import": 6726,
      "stone</w>": 6727,
      "Fol": 6728,
      "traditions</w>": 6729,
      "coefficient</w>": 6730,
      "harm": 6731,
      "dance</w>": 6732,
      "fab": 6733,
      "locations</w>": 6734,
      "sia</w>": 6735,
      "explained</w>": 6736,
      "defining</w>": 6737,
      "Out": 6738,
      "engaged</w>": 6739,
      "itors</w>": 6740,
      "eco": 6741,
      "stitution</w>": 6742,
      "paint": 6743,
      "animal</w>": 6744,
      "routine</w>": 6745,
      "Maintain</w>": 6746,
      "sively</w>": 6747,
      "radius</w>": 6748,
      "credit</w>": 6749,
      "mist": 6750,
      "confid": 6751,
      "eses</w>": 6752,
      "aren</w>": 6753,
      "overwhel": 6754,
      "chan": 6755,
      "Fl": 6756,
      "rows</w>": 6757,
      "Benny</w>": 6758,
      "fulness</w>": 6759,
      "Theore": 6760,
      "effect</w>": 6761,
      "origin</w>": 6762,
      "avoid": 6763,
      "communicate</w>": 6764,
      "contain</w>": 6765,
      "infrastructure</w>": 6766,
      "strength": 6767,
      "admini": 6768,
      "gru": 6769,
      "integrity</w>": 6770,
      "measurements</w>": 6771,
      "alty</w>": 6772,
      "ware</w>": 6773,
      "compelling</w>": 6774,
      "hard": 6775,
      "Ass": 6776,
      "rectangle</w>": 6777,
      "disrup": 6778,
      "believ": 6779,
      "Figure</w>": 6780,
      "mere</w>": 6781,
      "effectiveness</w>": 6782,
      "Determine</w>": 6783,
      "fer": 6784,
      "ser</w>": 6785,
      "gests</w>": 6786,
      "Experim": 6787,
      "budget</w>": 6788,
      "article</w>": 6789,
      "recognition</w>": 6790,
      "dimensional</w>": 6791,
      "Her</w>": 6792,
      "mob": 6793,
      "metic</w>": 6794,
      "bes</w>": 6795,
      "verti": 6796,
      "advice</w>": 6797,
      "suggests</w>": 6798,
      "waves</w>": 6799,
      "Famili": 6800,
      "moun": 6801,
      "alternatives</w>": 6802,
      "anity</w>": 6803,
      "absor": 6804,
      "ghter</w>": 6805,
      "calculated</w>": 6806,
      "emer": 6807,
      "inty</w>": 6808,
      "finally</w>": 6809,
      "da": 6810,
      "Navig": 6811,
      "stim": 6812,
      "essed</w>": 6813,
      "John</w>": 6814,
      "nearby</w>": 6815,
      "Mark": 6816,
      "wisdom</w>": 6817,
      "embark</w>": 6818,
      "owers</w>": 6819,
      "Cap": 6820,
      "ible</w>": 6821,
      "NA</w>": 6822,
      "wel": 6823,
      "Bri": 6824,
      "rem": 6825,
      "factu": 6826,
      "utilize</w>": 6827,
      "puzz": 6828,
      "rative</w>": 6829,
      "commer": 6830,
      "characterized</w>": 6831,
      "Func": 6832,
      "promin": 6833,
      "Lo": 6834,
      "obstac": 6835,
      "pay</w>": 6836,
      "apples</w>": 6837,
      "rain</w>": 6838,
      "implies</w>": 6839,
      "meticul": 6840,
      "eventually</w>": 6841,
      "layer</w>": 6842,
      "tor": 6843,
      "enter</w>": 6844,
      "uded</w>": 6845,
      "fair": 6846,
      "leave</w>": 6847,
      "Ro": 6848,
      "belong": 6849,
      "Recent</w>": 6850,
      "employees</w>": 6851,
      "Many</w>": 6852,
      "met</w>": 6853,
      "Emp": 6854,
      "chemical</w>": 6855,
      "Se": 6856,
      "intric": 6857,
      "regulatory</w>": 6858,
      "Trans": 6859,
      "ane</w>": 6860,
      "configur": 6861,
      "shops</w>": 6862,
      "websites</w>": 6863,
      "Ref": 6864,
      "measuring</w>": 6865,
      "Add</w>": 6866,
      "Strategies</w>": 6867,
      "wil": 6868,
      "continues</w>": 6869,
      "picture</w>": 6870,
      "conflicts</w>": 6871,
      "bonds</w>": 6872,
      "anxiety</w>": 6873,
      "Some": 6874,
      "transm": 6875,
      "Add": 6876,
      "disease</w>": 6877,
      "topic</w>": 6878,
      "staying</w>": 6879,
      "Uni": 6880,
      "app</w>": 6881,
      "tension</w>": 6882,
      "akes</w>": 6883,
      "nuanced</w>": 6884,
      "news</w>": 6885,
      "thoughtful</w>": 6886,
      "otyp": 6887,
      "opening</w>": 6888,
      "journ": 6889,
      "fli": 6890,
      "practition": 6891,
      "analyses</w>": 6892,
      "backs</w>": 6893,
      "advantage</w>": 6894,
      "tric</w>": 6895,
      "reflecting</w>": 6896,
      "lish</w>": 6897,
      "save</w>": 6898,
      "BC</w>": 6899,
      "ups</w>": 6900,
      "Exc": 6901,
      "emerged</w>": 6902,
      "tells</w>": 6903,
      "impres": 6904,
      "purposes</w>": 6905,
      "art": 6906,
      "operating</w>": 6907,
      "stems</w>": 6908,
      "Diff": 6909,
      "files</w>": 6910,
      "heavily</w>": 6911,
      "acknowledging</w>": 6912,
      "plant</w>": 6913,
      "ew</w>": 6914,
      "viewing</w>": 6915,
      "Even</w>": 6916,
      "maximize</w>": 6917,
      "ave</w>": 6918,
      "disciplines</w>": 6919,
      "Select</w>": 6920,
      "sely</w>": 6921,
      "prepared</w>": 6922,
      "No</w>": 6923,
      "iciency</w>": 6924,
      "identities</w>": 6925,
      "excessive</w>": 6926,
      "employ</w>": 6927,
      "drive</w>": 6928,
      "magic</w>": 6929,
      "freed": 6930,
      "vil</w>": 6931,
      "gras": 6932,
      "presents</w>": 6933,
      "tainty</w>": 6934,
      "az": 6935,
      "essible</w>": 6936,
      "captiv": 6937,
      "appeal</w>": 6938,
      "fish</w>": 6939,
      "hysi": 6940,
      "cing</w>": 6941,
      "cooper": 6942,
      "respectively</w>": 6943,
      "harm</w>": 6944,
      "convert</w>": 6945,
      "pac": 6946,
      "Power</w>": 6947,
      "corner</w>": 6948,
      "ende": 6949,
      "exhibit</w>": 6950,
      "gradually</w>": 6951,
      "Indeed</w>": 6952,
      "prior</w>": 6953,
      "Prof": 6954,
      "ptoms</w>": 6955,
      "theses</w>": 6956,
      "intercept</w>": 6957,
      "jum": 6958,
      "gence</w>": 6959,
      "trig": 6960,
      "lation</w>": 6961,
      "liqu": 6962,
      "stret": 6963,
      "implementation</w>": 6964,
      "indicates</w>": 6965,
      "Pres": 6966,
      "conserv": 6967,
      "click</w>": 6968,
      "definitions</w>": 6969,
      "formal</w>": 6970,
      "goods</w>": 6971,
      "idly</w>": 6972,
      "States</w>": 6973,
      "ticism</w>": 6974,
      "emphasizing</w>": 6975,
      "&\\</w>": 6976,
      "Proc": 6977,
      "tree</w>": 6978,
      "transformations</w>": 6979,
      "sition</w>": 6980,
      "went</w>": 6981,
      "ulate</w>": 6982,
      "2018</w>": 6983,
      "Notice</w>": 6984,
      "|\\</w>": 6985,
      "road</w>": 6986,
      "big": 6987,
      "black</w>": 6988,
      "evaluation</w>": 6989,
      "trigonomet": 6990,
      "Cur": 6991,
      "ek</w>": 6992,
      "prop": 6993,
      "highly</w>": 6994,
      "traff": 6995,
      "Sci": 6996,
      "excitement</w>": 6997,
      "devi": 6998,
      "Fri": 6999,
      "ission</w>": 7000,
      "ello</w>": 7001,
      "got</w>": 7002,
      "manufactu": 7003,
      "reactions</w>": 7004,
      "marks</w>": 7005,
      "inspire</w>": 7006,
      "improvements</w>": 7007,
      "Focus</w>": 7008,
      "rapid</w>": 7009,
      "excellent</w>": 7010,
      "Theorem</w>": 7011,
      "generated</w>": 7012,
      "week</w>": 7013,
      "updates</w>": 7014,
      "recommend": 7015,
      "intricacies</w>": 7016,
      "unity</w>": 7017,
      "showing</w>": 7018,
      "proceed</w>": 7019,
      "grounds</w>": 7020,
      "mel": 7021,
      "correctly</w>": 7022,
      "held</w>": 7023,
      "contain": 7024,
      "Not</w>": 7025,
      "))": 7026,
      "omic</w>": 7027,
      "variations</w>": 7028,
      "pharm": 7029,
      "interpretation</w>": 7030,
      "sophisticated</w>": 7031,
      "----------------------------": 7032,
      "heavy</w>": 7033,
      "rices</w>": 7034,
      "lost</w>": 7035,
      "veget": 7036,
      "Common</w>": 7037,
      "providers</w>": 7038,
      "arrow</w>": 7039,
      "positively</w>": 7040,
      "loy": 7041,
      "anticip": 7042,
      "eat</w>": 7043,
      "voc": 7044,
      "arm</w>": 7045,
      "](</w>": 7046,
      "ift</w>": 7047,
      "19</w>": 7048,
      "Micro": 7049,
      "helped</w>": 7050,
      "ago</w>": 7051,
      "Altern": 7052,
      "schools</w>": 7053,
      "Recall</w>": 7054,
      "influencing</w>": 7055,
      "amounts</w>": 7056,
      "parall": 7057,
      "ff</w>": 7058,
      "memor": 7059,
      "percei": 7060,
      "poll": 7061,
      "doors</w>": 7062,
      "depends</w>": 7063,
      "Revi": 7064,
      "Challeng": 7065,
      "cards</w>": 7066,
      "colon": 7067,
      "selling</w>": 7068,
      "reveals</w>": 7069,
      "45</w>": 7070,
      "Tur": 7071,
      "sex": 7072,
      "visible</w>": 7073,
      "causes</w>": 7074,
      "brings</w>": 7075,
      "remark": 7076,
      "Understand</w>": 7077,
      "bacter": 7078,
      "ytelling</w>": 7079,
      "Lin": 7080,
      "yer</w>": 7081,
      "affected</w>": 7082,
      "differential</w>": 7083,
      "precision</w>": 7084,
      "tured</w>": 7085,
      "remove</w>": 7086,
      "count</w>": 7087,
      "prospec": 7088,
      "Mathemati": 7089,
      "practitioners</w>": 7090,
      "endeav": 7091,
      "kids</w>": 7092,
      "Effective</w>": 7093,
      "aceu": 7094,
      "thoroughly</w>": 7095,
      "hour</w>": 7096,
      "Management</w>": 7097,
      "cut</w>": 7098,
      "twice</w>": 7099,
      "surfaces</w>": 7100,
      "VV": 7101,
      "attrac": 7102,
      "Discus": 7103,
      "vertex</w>": 7104,
      "Apply</w>": 7105,
      "framework</w>": 7106,
      "percep": 7107,
      "Delta</w>": 7108,
      "Dem": 7109,
      "assion": 7110,
      "owly</w>": 7111,
      "mic</w>": 7112,
      "mir": 7113,
      "tering</w>": 7114,
      "intellectual</w>": 7115,
      "handle</w>": 7116,
      "forth</w>": 7117,
      "happened</w>": 7118,
      "mix": 7119,
      "usual</w>": 7120,
      "release</w>": 7121,
      "Val": 7122,
      "identical</w>": 7123,
      "mixed</w>": 7124,
      "iver</w>": 7125,
      "ean</w>": 7126,
      "stages</w>": 7127,
      "denly</w>": 7128,
      "combination</w>": 7129,
      "Contin": 7130,
      "prec": 7131,
      "phase</w>": 7132,
      "nuances</w>": 7133,
      "Lim": 7134,
      "worked</w>": 7135,
      "maybe</w>": 7136,
      "ouse</w>": 7137,
      "magnit": 7138,
      "yers</w>": 7139,
      "2017</w>": 7140,
      "entrepreneur": 7141,
      "Can</w>": 7142,
      "reci": 7143,
      "Development</w>": 7144,
      "fing": 7145,
      "edges</w>": 7146,
      "renew": 7147,
      "placing</w>": 7148,
      "revenue</w>": 7149,
      "}=\\</w>": 7150,
      "fusion</w>": 7151,
      "Overview</w>": 7152,
      "----------</w>": 7153,
      "Mi": 7154,
      "accessible</w>": 7155,
      "fies</w>": 7156,
      "sent": 7157,
      "Convers": 7158,
      "crow": 7159,
      "crafting</w>": 7160,
      "urban</w>": 7161,
      "distances</w>": 7162,
      "capture</w>": 7163,
      "filling</w>": 7164,
      "algebra</w>": 7165,
      "paths</w>": 7166,
      "tissu": 7167,
      "Hy": 7168,
      "\\[</w>": 7169,
      "Solution</w>": 7170,
      "conflict</w>": 7171,
      "ete</w>": 7172,
      "--------------------": 7173,
      "accounts</w>": 7174,
      "Jap": 7175,
      "Tri": 7176,
      "after": 7177,
      "rapidly</w>": 7178,
      "expanding</w>": 7179,
      "obstacles</w>": 7180,
      "placed</w>": 7181,
      "mly</w>": 7182,
      "thr": 7183,
      "neighb": 7184,
      ")-</w>": 7185,
      "participation</w>": 7186,
      "itary</w>": 7187,
      "Meas": 7188,
      "modeling</w>": 7189,
      "ip": 7190,
      "map</w>": 7191,
      "landscapes</w>": 7192,
      "instructions</w>": 7193,
      "bustling</w>": 7194,
      "Initi": 7195,
      "gas</w>": 7196,
      "inspired</w>": 7197,
      "80</w>": 7198,
      "numerical</w>": 7199,
      "intervention</w>": 7200,
      "immun": 7201,
      "meters</w>": 7202,
      "gent": 7203,
      "concl": 7204,
      "existence</w>": 7205,
      "jewelry</w>": 7206,
      "moist": 7207,
      "Learning</w>": 7208,
      "citizens</w>": 7209,
      "Think</w>": 7210,
      "outcome</w>": 7211,
      "classes</w>": 7212,
      "Serv": 7213,
      "itely</w>": 7214,
      "method": 7215,
      "particles</w>": 7216,
      "organizational</w>": 7217,
      "aid</w>": 7218,
      "ang</w>": 7219,
      "delicious</w>": 7220,
      "weeks</w>": 7221,
      "manufacture": 7222,
      "sac": 7223,
      "powerment</w>": 7224,
      "libr": 7225,
      "Cont": 7226,
      "mark</w>": 7227,
      "break": 7228,
      "mal": 7229,
      "threats</w>": 7230,
      "Upon</w>": 7231,
      "entities</w>": 7232,
      "discourse</w>": 7233,
      "drawn</w>": 7234,
      "remarkable</w>": 7235,
      "Min": 7236,
      "izes</w>": 7237,
      "adaptability</w>": 7238,
      "veness</w>": 7239,
      "establishing</w>": 7240,
      "Def": 7241,
      "eter</w>": 7242,
      "statements</w>": 7243,
      "All</w>": 7244,
      "Share</w>": 7245,
      "tunately</w>": 7246,
      "hu": 7247,
      "Leg": 7248,
      "interact</w>": 7249,
      "Definition</w>": 7250,
      "bits</w>": 7251,
      "traits</w>": 7252,
      "congru": 7253,
      "perhaps</w>": 7254,
      "notation</w>": 7255,
      "identified</w>": 7256,
      "newly</w>": 7257,
      "theless</w>": 7258,
      "red": 7259,
      "evertheless</w>": 7260,
      "Beg": 7261,
      "encompas": 7262,
      "graphs</w>": 7263,
      "shaped</w>": 7264,
      "survi": 7265,
      "detailed</w>": 7266,
      "seems</w>": 7267,
      "cha": 7268,
      "shad": 7269,
      "High</w>": 7270,
      "Busin": 7271,
      "tility</w>": 7272,
      "Int": 7273,
      "swit": 7274,
      "notes</w>": 7275,
      "describe</w>": 7276,
      "statistics</w>": 7277,
      "credi": 7278,
      "matrices</w>": 7279,
      "ults</w>": 7280,
      "generation</w>": 7281,
      "balanced</w>": 7282,
      "him": 7283,
      "facts</w>": 7284,
      "insurance</w>": 7285,
      "agreed</w>": 7286,
      "campaigns</w>": 7287,
      "sion": 7288,
      "consci": 7289,
      "array</w>": 7290,
      "estions</w>": 7291,
      "adds</w>": 7292,
      "circles</w>": 7293,
      "Future</w>": 7294,
      "Follow</w>": 7295,
      "decide</w>": 7296,
      "Develop</w>": 7297,
      "Te": 7298,
      "Direc": 7299,
      "judg": 7300,
      "-></w>": 7301,
      "ana</w>": 7302,
      "Hel": 7303,
      "ced</w>": 7304,
      "conclu": 7305,
      "featuring</w>": 7306,
      "symptoms</w>": 7307,
      "indicating</w>": 7308,
      "China</w>": 7309,
      "Are": 7310,
      "key": 7311,
      "suggest</w>": 7312,
      "Imp": 7313,
      "complexities</w>": 7314,
      "AB</w>": 7315,
      "dog</w>": 7316,
      "magnetic</w>": 7317,
      "lens</w>": 7318,
      "inspiration</w>": 7319,
      "Hello</w>": 7320,
      "quick</w>": 7321,
      "teaching</w>": 7322,
      "Proper": 7323,
      "ution": 7324,
      "stumbled</w>": 7325,
      "Check</w>": 7326,
      "deral</w>": 7327,
      "herit": 7328,
      "strict</w>": 7329,
      "completing</w>": 7330,
      "uncertainty</w>": 7331,
      "cities</w>": 7332,
      "Techniques</w>": 7333,
      "Ga": 7334,
      "equally</w>": 7335,
      "Guid": 7336,
      "fine</w>": 7337,
      "intersection</w>": 7338,
      "amazing</w>": 7339,
      "missing</w>": 7340,
      "objective</w>": 7341,
      "eath</w>": 7342,
      "iled</w>": 7343,
      "bitr": 7344,
      "inclusive</w>": 7345,
      "languages</w>": 7346,
      "firms</w>": 7347,
      "etheless</w>": 7348,
      "Thom": 7349,
      "edly</w>": 7350,
      "programming</w>": 7351,
      "embrace</w>": 7352,
      "capital</w>": 7353,
      "sent</w>": 7354,
      "sud": 7355,
      "structural</w>": 7356,
      "forcement</w>": 7357,
      "shown</w>": 7358,
      "Europe": 7359,
      "calculus</w>": 7360,
      "promotes</w>": 7361,
      "thous": 7362,
      "generally</w>": 7363,
      "estimate</w>": 7364,
      "completely</w>": 7365,
      "disciplinary</w>": 7366,
      "faith</w>": 7367,
      "answers</w>": 7368,
      "parabol": 7369,
      "phr": 7370,
      "gather</w>": 7371,
      "Coun": 7372,
      "adm": 7373,
      "experts</w>": 7374,
      "schem": 7375,
      "motivation</w>": 7376,
      "Nevertheless</w>": 7377,
      "indicate</w>": 7378,
      "Prob": 7379,
      "adapt</w>": 7380,
      "Personal</w>": 7381,
      "fini": 7382,
      "expenses</w>": 7383,
      "ull</w>": 7384,
      "solidi": 7385,
      "session</w>": 7386,
      "memories</w>": 7387,
      "consul": 7388,
      "Establish</w>": 7389,
      "Parti": 7390,
      "done</w>": 7391,
      "optimization</w>": 7392,
      "inging</w>": 7393,
      "visually</w>": 7394,
      "thanks</w>": 7395,
      "medic": 7396,
      "2016</w>": 7397,
      "weakn": 7398,
      "measurement</w>": 7399,
      "rit</w>": 7400,
      "immediate</w>": 7401,
      "participate</w>": 7402,
      "Sometimes</w>": 7403,
      "nucle": 7404,
      "bling</w>": 7405,
      ")}</w>": 7406,
      "don": 7407,
      "ene</w>": 7408,
      "4x</w>": 7409,
      "rm</w>": 7410,
      "rying</w>": 7411,
      "iny</w>": 7412,
      "occa": 7413,
      "lic": 7414,
      "ilibri": 7415,
      "hydr": 7416,
      "carbon</w>": 7417,
      "22</w>": 7418,
      "23</w>": 7419,
      "managed</w>": 7420,
      "himself</w>": 7421,
      "susp": 7422,
      "partnerships</w>": 7423,
      "organized</w>": 7424,
      "LS": 7425,
      "pricing</w>": 7426,
      "utive</w>": 7427,
      "middle</w>": 7428,
      "afford": 7429,
      "pra": 7430,
      "metal</w>": 7431,
      "occup": 7432,
      "compatibility</w>": 7433,
      "Comprehen": 7434,
      "avi": 7435,
      "display</w>": 7436,
      "documents</w>": 7437,
      "policy": 7438,
      "Less": 7439,
      "bols</w>": 7440,
      "rK": 7441,
      "opping</w>": 7442,
      "segment</w>": 7443,
      "uck</w>": 7444,
      "transform</w>": 7445,
      "encountered</w>": 7446,
      "agreements</w>": 7447,
      "remov": 7448,
      "accessibility</w>": 7449,
      "hob": 7450,
      "termin": 7451,
      "poly": 7452,
      "arbitr": 7453,
      "rot": 7454,
      "manif": 7455,
      "Br": 7456,
      "Comb": 7457,
      "conduct</w>": 7458,
      "Sammy</w>": 7459,
      "itly</w>": 7460,
      "illum": 7461,
      "finite</w>": 7462,
      "electric</w>": 7463,
      "anth": 7464,
      "temporary</w>": 7465,
      "yth": 7466,
      "transfer</w>": 7467,
      "driven</w>": 7468,
      "purchasing</w>": 7469,
      "arguments</w>": 7470,
      "obtained</w>": 7471,
      "yst": 7472,
      "trigg": 7473,
      "${</w>": 7474,
      "stituting</w>": 7475,
      "presentation</w>": 7476,
      "developers</w>": 7477,
      "Health</w>": 7478,
      "sought</w>": 7479,
      "Contro": 7480,
      "beneath</w>": 7481,
      "freedom</w>": 7482,
      "facilitating</w>": 7483,
      "applicable</w>": 7484,
      "avoiding</w>": 7485,
      "straight": 7486,
      "cycle</w>": 7487,
      "vary</w>": 7488,
      "aff</w>": 7489,
      "Prot": 7490,
      "spot</w>": 7491,
      "Pur": 7492,
      "received</w>": 7493,
      "alignment</w>": 7494,
      "utr": 7495,
      "adequate</w>": 7496,
      "gaps</w>": 7497,
      "although</w>": 7498,
      "partners</w>": 7499,
      "temperatures</w>": 7500,
      "intriguing</w>": 7501,
      "foli": 7502,
      "contrac": 7503,
      "influences</w>": 7504,
      "foreign</w>": 7505,
      "entirely</w>": 7506,
      "acqu": 7507,
      "upper</w>": 7508,
      "inated</w>": 7509,
      "workers</w>": 7510,
      "mathematicians</w>": 7511,
      "hot</w>": 7512,
      "ak": 7513,
      "clar": 7514,
      "jective</w>": 7515,
      "domains</w>": 7516,
      "recommendations</w>": 7517,
      "attit": 7518,
      "confidently</w>": 7519,
      "iling</w>": 7520,
      "traffic</w>": 7521,
      "cm</w>": 7522,
      "ught</w>": 7523,
      ")]</w>": 7524,
      "Histor": 7525,
      "anded</w>": 7526,
      "comparis": 7527,
      "kind": 7528,
      "dic</w>": 7529,
      "assets</w>": 7530,
      "healing</w>": 7531,
      "debate</w>": 7532,
      "strive</w>": 7533,
      "Christian</w>": 7534,
      "Utilize</w>": 7535,
      "spi": 7536,
      "knows</w>": 7537,
      "myself</w>": 7538,
      "Publi": 7539,
      "Among</w>": 7540,
      "wind</w>": 7541,
      "proposed</w>": 7542,
      "egu": 7543,
      "confident</w>": 7544,
      "symbols</w>": 7545,
      "straightforward</w>": 7546,
      "combine</w>": 7547,
      "stitutes</w>": 7548,
      "delicate</w>": 7549,
      "representations</w>": 7550,
      "accum": 7551,
      "texts</w>": 7552,
      "atmosphere</w>": 7553,
      "2019</w>": 7554,
      "ax</w>": 7555,
      "sou": 7556,
      "quar": 7557,
      "holding</w>": 7558,
      "leaves</w>": 7559,
      "parameters</w>": 7560,
      "tactics</w>": 7561,
      "Importance</w>": 7562,
      "Of</w>": 7563,
      "grasp</w>": 7564,
      "Kn": 7565,
      "Ger": 7566,
      "aven": 7567,
      "adjustments</w>": 7568,
      "metrics</w>": 7569,
      "symmetry</w>": 7570,
      "vit": 7571,
      "overy</w>": 7572,
      "peers</w>": 7573,
      "Regular</w>": 7574,
      "card</w>": 7575,
      "generating</w>": 7576,
      "infinity</w>": 7577,
      "film</w>": 7578,
      "unnecessary</w>": 7579,
      "arrangements</w>": 7580,
      "bound</w>": 7581,
      "ground": 7582,
      "great": 7583,
      "assionate</w>": 7584,
      "composition</w>": 7585,
      "\\]</w>": 7586,
      "owned</w>": 7587,
      "tude</w>": 7588,
      "summar": 7589,
      "Mov": 7590,
      "gir": 7591,
      "asym": 7592,
      "outs</w>": 7593,
      "staff</w>": 7594,
      "sivity</w>": 7595,
      "block</w>": 7596,
      "delivery</w>": 7597,
      "National</w>": 7598,
      "incredible</w>": 7599,
      "aled</w>": 7600,
      "happy</w>": 7601,
      "Experiment</w>": 7602,
      "lingu": 7603,
      "tains</w>": 7604,
      "believe</w>": 7605,
      "hur": 7606,
      "More</w>": 7607,
      "strengthen</w>": 7608,
      "European</w>": 7609,
      "Intern": 7610,
      "sin": 7611,
      "Mari": 7612,
      "lining</w>": 7613,
      "uctu": 7614,
      "coverage</w>": 7615,
      "atch</w>": 7616,
      "muscle</w>": 7617,
      "dilig": 7618,
      "prepare</w>": 7619,
      "expansion</w>": 7620,
      "piv": 7621,
      "|---|---": 7622,
      "AT": 7623,
      "ucid": 7624,
      "cultivate</w>": 7625,
      "cov": 7626,
      "rolling</w>": 7627,
      "Comprehensive</w>": 7628,
      "War</w>": 7629,
      "tainment</w>": 7630,
      "rhy": 7631,
      "eous</w>": 7632,
      "forget</w>": 7633,
      "compliance</w>": 7634,
      "humans</w>": 7635,
      "Stu": 7636,
      "forcing</w>": 7637,
      "tened</w>": 7638,
      "reference</w>": 7639,
      "cryp": 7640,
      "Or</w>": 7641,
      "recently</w>": 7642,
      "text": 7643,
      "classic</w>": 7644,
      "aceutical</w>": 7645,
      "storytelling</w>": 7646,
      "assessment</w>": 7647,
      "Nonetheless</w>": 7648,
      "arithmetic</w>": 7649,
      "0s</w>": 7650,
      "la</w>": 7651,
      "prominent</w>": 7652,
      "Dist": 7653,
      "ither</w>": 7654,
      "button</w>": 7655,
      "nership</w>": 7656,
      "Not": 7657,
      "Up</w>": 7658,
      "dian</w>": 7659,
      "genetic</w>": 7660,
      "responsibilities</w>": 7661,
      "observation</w>": 7662,
      "treatments</w>": 7663,
      "Creating</w>": 7664,
      "transformed</w>": 7665,
      "eeding</w>": 7666,
      "elucid": 7667,
      "taste</w>": 7668,
      "participating</w>": 7669,
      "fruits</w>": 7670,
      "Based</w>": 7671,
      "intended</w>": 7672,
      "migration</w>": 7673,
      ")+</w>": 7674,
      "expressing</w>": 7675,
      "embar": 7676,
      "compassion</w>": 7677,
      ".”</w>": 7678,
      "rewrite</w>": 7679,
      "cil</w>": 7680,
      "du</w>": 7681,
      ".)</w>": 7682,
      "=-</w>": 7683,
      "Role</w>": 7684,
      "hop": 7685,
      "regulation</w>": 7686,
      "Prep": 7687,
      "described</w>": 7688,
      "Doc": 7689,
      "opt</w>": 7690,
      "focuses</w>": 7691,
      "famous</w>": 7692,
      "visibility</w>": 7693,
      "balls</w>": 7694,
      "surprise</w>": 7695,
      "ographic</w>": 7696,
      "analytical</w>": 7697,
      "definite</w>": 7698,
      "interventions</w>": 7699,
      "Grou": 7700,
      "touch</w>": 7701,
      "spl": 7702,
      ")=\\</w>": 7703,
      "ID</w>": 7704,
      "],</w>": 7705,
      "personality</w>": 7706,
      "extended</w>": 7707,
      "Bec": 7708,
      "Mu": 7709,
      "access": 7710,
      "eth</w>": 7711,
      "volun": 7712,
      "fluctu": 7713,
      "profit</w>": 7714,
      "entry</w>": 7715,
      "extend</w>": 7716,
      "sect</w>": 7717,
      "ratios</w>": 7718,
      "Business</w>": 7719,
      "Net": 7720,
      "sunny</w>": 7721,
      "safegu": 7722,
      "construct</w>": 7723,
      "tracking</w>": 7724,
      "symbol": 7725,
      "attempting</w>": 7726,
      "equilibri": 7727,
      "Gu": 7728,
      "treas": 7729,
      "availability</w>": 7730,
      "finance</w>": 7731,
      "contrast</w>": 7732,
      "shou": 7733,
      "ank</w>": 7734,
      "closed</w>": 7735,
      "wood</w>": 7736,
      "ressive</w>": 7737,
      "fea": 7738,
      "brush</w>": 7739,
      "multi</w>": 7740,
      "delivering</w>": 7741,
      "=(</w>": 7742,
      "revealing</w>": 7743,
      "achievements</w>": 7744,
      "accounting</w>": 7745,
      "rin": 7746,
      "sses</w>": 7747,
      "producing</w>": 7748,
      "precisely</w>": 7749,
      "[\\</w>": 7750,
      "ert</w>": 7751,
      "hydro": 7752,
      "buy</w>": 7753,
      "band</w>": 7754,
      "cub": 7755,
      "ly": 7756,
      "targeted</w>": 7757,
      "reasons</w>": 7758,
      "grade</w>": 7759,
      "opinions</w>": 7760,
      "passing</w>": 7761,
      "Squ": 7762,
      "Saf": 7763,
      "proof</w>": 7764,
      "bag</w>": 7765,
      "English</w>": 7766,
      "mobile</w>": 7767,
      "Great</w>": 7768,
      "theories</w>": 7769,
      "narrative</w>": 7770,
      "Do": 7771,
      "Ret": 7772,
      "asm</w>": 7773,
      "adventures</w>": 7774,
      "Tre": 7775,
      "accountability</w>": 7776,
      "pivotal</w>": 7777,
      "alling</w>": 7778,
      "profile</w>": 7779,
      "seamless</w>": 7780,
      "cent</w>": 7781,
      "tum</w>": 7782,
      "ucc": 7783,
      "dependent</w>": 7784,
      "perfec": 7785,
      "roll</w>": 7786,
      "conversion</w>": 7787,
      "marked</w>": 7788,
      "div": 7789,
      "extra": 7790,
      "transition</w>": 7791,
      "fare</w>": 7792,
      "oved</w>": 7793,
      "meals</w>": 7794,
      "taining</w>": 7795,
      "grat": 7796,
      "leveraging</w>": 7797,
      "Impact</w>": 7798,
      "spiritual</w>": 7799,
      "Custom": 7800,
      "shar": 7801,
      "enthusiasts</w>": 7802,
      "^\\</w>": 7803,
      "returns</w>": 7804,
      "eful": 7805,
      "respond</w>": 7806,
      "optimize</w>": 7807,
      "visions</w>": 7808,
      "subtle</w>": 7809,
      "showc": 7810,
      "pushing</w>": 7811,
      "ett": 7812,
      "geometry</w>": 7813,
      "ference</w>": 7814,
      "umes</w>": 7815,
      "funds</w>": 7816,
      "preventing</w>": 7817,
      "backgrounds</w>": 7818,
      "assume</w>": 7819,
      "unting</w>": 7820,
      "grams</w>": 7821,
      "onomy</w>": 7822,
      "attending</w>": 7823,
      "bond</w>": 7824,
      "addres": 7825,
      "ne</w>": 7826,
      "integrals</w>": 7827,
      "protecting</w>": 7828,
      "credibility</w>": 7829,
      "Spe": 7830,
      "ady</w>": 7831,
      "xy</w>": 7832,
      "estic</w>": 7833,
      "izz": 7834,
      "ab</w>": 7835,
      "arian</w>": 7836,
      "reflects</w>": 7837,
      "societies</w>": 7838,
      "arrive</w>": 7839,
      "segments</w>": 7840,
      "margin": 7841,
      "spending</w>": 7842,
      "endic": 7843,
      "Conversely</w>": 7844,
      "197": 7845,
      "Place</w>": 7846,
      "shop</w>": 7847,
      "Lily</w>": 7848,
      "_k</w>": 7849,
      "igen": 7850,
      "flavors</w>": 7851,
      "pes</w>": 7852,
      "wish</w>": 7853,
      "scene</w>": 7854,
      "round</w>": 7855,
      "arc": 7856,
      "AP": 7857,
      "nessing</w>": 7858,
      "minimal</w>": 7859,
      "heritage</w>": 7860,
      "Hence</w>": 7861,
      "ardi": 7862,
      "innovations</w>": 7863,
      "sam": 7864,
      "relying</w>": 7865,
      "relevance</w>": 7866,
      "lau": 7867,
      "advances</w>": 7868,
      "clothing</w>": 7869,
      "sibly</w>": 7870,
      "sev": 7871,
      "Hum": 7872,
      "unning</w>": 7873,
      "passed</w>": 7874,
      "moment": 7875,
      "percent": 7876,
      "suggested</w>": 7877,
      "17</w>": 7878,
      "concre": 7879,
      "paramount</w>": 7880,
      "Produc": 7881,
      "calculation</w>": 7882,
      "economy</w>": 7883,
      "Are</w>": 7884,
      "Cam": 7885,
      "abstract</w>": 7886,
      "ulations</w>": 7887,
      "introducing</w>": 7888,
      "Sally</w>": 7889,
      "preparation</w>": 7890,
      "Prepare</w>": 7891,
      "Vari": 7892,
      "eleg": 7893,
      "frag": 7894,
      "substitution</w>": 7895,
      "inequ": 7896,
      "valid</w>": 7897,
      "density</w>": 7898,
      "stop</w>": 7899,
      "shment</w>": 7900,
      "Education</w>": 7901,
      "weaknesses</w>": 7902,
      "discre": 7903,
      "enty</w>": 7904,
      ".*</w>": 7905,
      "hat</w>": 7906,
      "boxed</w>": 7907,
      "diver": 7908,
      "racing</w>": 7909,
      "wave</w>": 7910,
      "Implement": 7911,
      "pre</w>": 7912,
      "reasoning</w>": 7913,
      "denote</w>": 7914,
      "electro": 7915,
      "qqqq": 7916,
      "curves</w>": 7917,
      "principle</w>": 7918,
      "}=</w>": 7919,
      "sics</w>": 7920,
      "lets</w>": 7921,
      "constitutes</w>": 7922,
      "checking</w>": 7923,
      "International</w>": 7924,
      "hes": 7925,
      "neighbor": 7926,
      "Exp": 7927,
      "computational</w>": 7928,
      "opp": 7929,
      "scop": 7930,
      "emerge</w>": 7931,
      "item</w>": 7932,
      "Inst": 7933,
      "continuity</w>": 7934,
      "covering</w>": 7935,
      "musical</w>": 7936,
      "Red": 7937,
      "distributions</w>": 7938,
      "doub": 7939,
      "column</w>": 7940,
      "kin": 7941,
      "sugar</w>": 7942,
      "hion</w>": 7943,
      "Test</w>": 7944,
      "suit</w>": 7945,
      "agues</w>": 7946,
      "magnitude</w>": 7947,
      "itical</w>": 7948,
      "performances</w>": 7949,
      "struggle</w>": 7950,
      "slowly</w>": 7951,
      "men</w>": 7952,
      "highlight</w>": 7953,
      "thering</w>": 7954,
      "vec</w>": 7955,
      ",'</w>": 7956,
      "ulty</w>": 7957,
      "bol</w>": 7958,
      "naturally</w>": 7959,
      "istry</w>": 7960,
      "ament</w>": 7961,
      "Sam</w>": 7962,
      "\\{</w>": 7963,
      "cancer</w>": 7964,
      "grab</w>": 7965,
      "clinical</w>": 7966,
      "boxes</w>": 7967,
      "signal</w>": 7968,
      "disparities</w>": 7969,
      "beloved</w>": 7970,
      "500</w>": 7971,
      "perfectly</w>": 7972,
      "Engage</w>": 7973,
      "wer</w>": 7974,
      "idents</w>": 7975,
      "inten": 7976,
      "observing</w>": 7977,
      "report</w>": 7978,
      "specified</w>": 7979,
      "candidates</w>": 7980,
      "Sal": 7981,
      "secret</w>": 7982,
      "City</w>": 7983,
      "Succ": 7984,
      "preferred</w>": 7985,
      "watch</w>": 7986,
      "explicitly</w>": 7987,
      "fications</w>": 7988,
      "protoc": 7989,
      "ifications</w>": 7990,
      "17": 7991,
      "exceptional</w>": 7992,
      "Seek</w>": 7993,
      "rhyth": 7994,
      "pread</w>": 7995,
      "workshops</w>": 7996,
      "Can": 7997,
      "cas": 7998,
      "tail</w>": 7999,
      "uncover</w>": 8000,
      "polynomials</w>": 8001,
      "mation</w>": 8002,
      "trees</w>": 8003,
      "pal": 8004,
      "empl": 8005,
      "manageable</w>": 8006,
      "NT": 8007,
      "||</w>": 8008,
      "biases</w>": 8009,
      "scrut": 8010,
      "respect": 8011,
      "liber": 8012,
      "monitor</w>": 8013,
      "fluid</w>": 8014,
      "official</w>": 8015,
      "sert</w>": 8016,
      "experiment</w>": 8017,
      "reser": 8018,
      "discrimination</w>": 8019,
      "extraordinary</w>": 8020,
      "fant": 8021,
      "rooms</w>": 8022,
      "faceted</w>": 8023,
      "mathrm</w>": 8024,
      "Foll": 8025,
      "Compar": 8026,
      "collaborative</w>": 8027,
      "guess</w>": 8028,
      "und": 8029,
      "vehicle</w>": 8030,
      "signals</w>": 8031,
      "Particip": 8032,
      "preserve</w>": 8033,
      "fit": 8034,
      "constructive</w>": 8035,
      "sters</w>": 8036,
      "simplifies</w>": 8037,
      "5x</w>": 8038,
      "taught</w>": 8039,
      "produced</w>": 8040,
      "perpendic": 8041,
      "arms</w>": 8042,
      "elf</w>": 8043,
      "interested</w>": 8044,
      "equilibrium</w>": 8045,
      "apps</w>": 8046,
      "adopting</w>": 8047,
      "16": 8048,
      "Brea": 8049,
      "stable</w>": 8050,
      "relaxation</w>": 8051,
      "counting</w>": 8052,
      "Area</w>": 8053,
      "cup</w>": 8054,
      "expect</w>": 8055,
      "latest</w>": 8056,
      "authentic</w>": 8057,
      "odd</w>": 8058,
      "cream</w>": 8059,
      "Econ": 8060,
      "doll": 8061,
      "enrich": 8062,
      "erings</w>": 8063,
      "dram": 8064,
      "claim</w>": 8065,
      "feels</w>": 8066,
      "cook": 8067,
      "recovery</w>": 8068,
      "intersec": 8069,
      "Sum": 8070,
      "dear</w>": 8071,
      "vement</w>": 8072,
      "Ide": 8073,
      "mac": 8074,
      "miles</w>": 8075,
      "spection</w>": 8076,
      "satisfying</w>": 8077,
      "brain</w>": 8078,
      "\\(\\</w>": 8079,
      "arding</w>": 8080,
      "partner</w>": 8081,
      "vill": 8082,
      "grati": 8083,
      "ustom</w>": 8084,
      "compass</w>": 8085,
      "co</w>": 8086,
      "icking</w>": 8087,
      "adverti": 8088,
      "format</w>": 8089,
      "gold</w>": 8090,
      "tab": 8091,
      "neutr": 8092,
      "spots</w>": 8093,
      "injury</w>": 8094,
      "nothing</w>": 8095,
      "vac": 8096,
      "ys": 8097,
      "Ter": 8098,
      "fill</w>": 8099,
      "essence</w>": 8100,
      "category</w>": 8101,
      "ord</w>": 8102,
      "die</w>": 8103,
      "symbol</w>": 8104,
      "simpler</w>": 8105,
      "suggesting</w>": 8106,
      "proving</w>": 8107,
      "claims</w>": 8108,
      "Struc": 8109,
      "List": 8110,
      "}.</w>": 8111,
      "Is": 8112,
      "artif": 8113,
      "matches</w>": 8114,
      "properly</w>": 8115,
      "etings</w>": 8116,
      "issions</w>": 8117,
      "publ": 8118,
      "ero": 8119,
      "African</w>": 8120,
      "vertices</w>": 8121,
      "MzMzMzMz": 8122,
      "Marketing</w>": 8123,
      "plus</w>": 8124,
      "gradu": 8125,
      "rad": 8126,
      "rewards</w>": 8127,
      "neuro": 8128,
      "versal</w>": 8129,
      "synthe": 8130,
      "Review</w>": 8131,
      "diseases</w>": 8132,
      "manipulation</w>": 8133,
      "recommended</w>": 8134,
      "reputation</w>": 8135,
      "transc": 8136,
      "expert</w>": 8137,
      "sky</w>": 8138,
      "aspiring</w>": 8139,
      "Open</w>": 8140,
      "Prior": 8141,
      "equity</w>": 8142,
      "carry</w>": 8143,
      "saying</w>": 8144,
      "180</w>": 8145,
      "infinite</w>": 8146,
      "policymakers</w>": 8147,
      "36</w>": 8148,
      "`.</w>": 8149,
      "reviews</w>": 8150,
      "happiness</w>": 8151,
      "herself</w>": 8152,
      "Familiarize</w>": 8153,
      "Connec": 8154,
      "Following</w>": 8155,
      "cos": 8156,
      "medicine</w>": 8157,
      "subjects</w>": 8158,
      "empowerment</w>": 8159,
      "dish</w>": 8160,
      "captivating</w>": 8161,
      "ley</w>": 8162,
      "dex</w>": 8163,
      "realistic</w>": 8164,
      "Chinese</w>": 8165,
      "thered</w>": 8166,
      "selected</w>": 8167,
      "Por": 8168,
      "eight</w>": 8169,
      "differently</w>": 8170,
      "exponents</w>": 8171,
      "hosp": 8172,
      "convey</w>": 8173,
      "datasets</w>": 8174,
      "ebook</w>": 8175,
      "discoveries</w>": 8176,
      "neither</w>": 8177,
      "military</w>": 8178,
      "phenomenon</w>": 8179,
      "System</w>": 8180,
      "University</w>": 8181,
      "Physi": 8182,
      "push</w>": 8183,
      "shares</w>": 8184,
      "hyper": 8185,
      "Law</w>": 8186,
      "izations</w>": 8187,
      "namely</w>": 8188,
      "Applications</w>": 8189,
      "extreme</w>": 8190,
      "meditation</w>": 8191,
      ".$</w>": 8192,
      "treat</w>": 8193,
      "2015</w>": 8194,
      "opol": 8195,
      "gran": 8196,
      "class": 8197,
      "versus</w>": 8198,
      "John": 8199,
      "hypothesis</w>": 8200,
      "cars</w>": 8201,
      "texture</w>": 8202,
      "7u7u7u7u": 8203,
      "anch": 8204,
      "lifestyle</w>": 8205,
      "industri": 8206,
      "hence</w>": 8207,
      "violence</w>": 8208,
      "US": 8209,
      "wants</w>": 8210,
      "unknown</w>": 8211,
      "ownership</w>": 8212,
      "glass</w>": 8213,
      "coff": 8214,
      "harmony</w>": 8215,
      "CB": 8216,
      "tedly</w>": 8217,
      "![</w>": 8218,
      "Polic": 8219,
      "cultivating</w>": 8220,
      "protein</w>": 8221,
      "dataset</w>": 8222,
      "underp": 8223,
      "governance</w>": 8224,
      "fans</w>": 8225,
      "peace</w>": 8226,
      "`,</w>": 8227,
      "slow</w>": 8228,
      "park</w>": 8229,
      "soil</w>": 8230,
      "fees</w>": 8231,
      "Mia</w>": 8232,
      "estion</w>": 8233,
      "flows</w>": 8234,
      "mix</w>": 8235,
      "lip": 8236,
      "investors</w>": 8237,
      "agencies</w>": 8238,
      "Exploring</w>": 8239,
      "record</w>": 8240,
      "watching</w>": 8241,
      "Like</w>": 8242,
      "alist</w>": 8243,
      "season</w>": 8244,
      "corporate</w>": 8245,
      "purchase</w>": 8246,
      "argument</w>": 8247,
      "Art</w>": 8248,
      "tel": 8249,
      "meets</w>": 8250,
      "impressive</w>": 8251,
      "rotation</w>": 8252,
      "prefer</w>": 8253,
      "Allow</w>": 8254,
      "flavor</w>": 8255,
      "Scen": 8256,
      "Rus": 8257,
      "reputable</w>": 8258,
      "Yet</w>": 8259,
      "Also</w>": 8260,
      "Having</w>": 8261,
      "teacher</w>": 8262,
      "supports</w>": 8263,
      "videos</w>": 8264,
      "conclusions</w>": 8265,
      "Lit": 8266,
      "}}{</w>": 8267,
      "icit</w>": 8268,
      "uth</w>": 8269,
      "glob": 8270,
      "accompli": 8271,
      "fewer</w>": 8272,
      "ern": 8273,
      "talent</w>": 8274,
      "bridge</w>": 8275,
      "quoti": 8276,
      "noise</w>": 8277,
      "calls</w>": 8278,
      "gentle</w>": 8279,
      "Fr": 8280,
      "wealth</w>": 8281,
      "courses</w>": 8282,
      "West": 8283,
      "scope</w>": 8284,
      "transitions</w>": 8285,
      "committed</w>": 8286,
      "proteins</w>": 8287,
      "preparing</w>": 8288,
      "cooperation</w>": 8289,
      "ng</w>": 8290,
      "van": 8291,
      "mechanics</w>": 8292,
      "voices</w>": 8293,
      "foot</w>": 8294,
      "fuel</w>": 8295,
      "**": 8296,
      "ints</w>": 8297,
      "excess</w>": 8298,
      "un</w>": 8299,
      "na</w>": 8300,
      "directions</w>": 8301,
      "explanations</w>": 8302,
      "loyalty</w>": 8303,
      "dark</w>": 8304,
      "entails</w>": 8305,
      "investments</w>": 8306,
      "ina</w>": 8307,
      "apped</w>": 8308,
      "severe</w>": 8309,
      "shments</w>": 8310,
      "distingu": 8311,
      "floor</w>": 8312,
      "older</w>": 8313,
      "Number</w>": 8314,
      "AR": 8315,
      "concrete</w>": 8316,
      "Consi": 8317,
      "included</w>": 8318,
      "Jour": 8319,
      "Total</w>": 8320,
      "necessarily</w>": 8321,
      "memorable</w>": 8322,
      "Grap": 8323,
      "hot": 8324,
      "rh": 8325,
      "ood": 8326,
      "appealing</w>": 8327,
      "annual</w>": 8328,
      "bies</w>": 8329,
      "happen</w>": 8330,
      "antum</w>": 8331,
      "batt": 8332,
      "reached</w>": 8333,
      "classical</w>": 8334,
      "ka</w>": 8335,
      "Wr": 8336,
      "[(</w>": 8337,
      "coin</w>": 8338,
      "internet</w>": 8339,
      "ural</w>": 8340,
      "vel</w>": 8341,
      "restrictions</w>": 8342,
      "Begin</w>": 8343,
      "etion</w>": 8344,
      "offerings</w>": 8345,
      "everyday</w>": 8346,
      "bab": 8347,
      "Experi": 8348,
      "breaks</w>": 8349,
      "US</w>": 8350,
      "multifaceted</w>": 8351,
      "organizing</w>": 8352,
      "surv": 8353,
      "silon</w>": 8354,
      "64</w>": 8355,
      "CD</w>": 8356,
      "acent</w>": 8357,
      "confron": 8358,
      "32</w>": 8359,
      "subtraction</w>": 8360,
      "aware</w>": 8361,
      "harmful</w>": 8362,
      "dang": 8363,
      "}\\": 8364,
      "neys</w>": 8365,
      "</</w>": 8366,
      "Pi": 8367,
      "ony</w>": 8368,
      "medium</w>": 8369,
      "pursuing</w>": 8370,
      "samples</w>": 8371,
      "Play": 8372,
      "document</w>": 8373,
      "smoothly</w>": 8374,
      "35</w>": 8375,
      "raising</w>": 8376,
      "trip</w>": 8377,
      "Moder": 8378,
      "tative</w>": 8379,
      "nod": 8380,
      "congruent</w>": 8381,
      "angular</w>": 8382,
      "compet": 8383,
      "experimental</w>": 8384,
      "counterparts</w>": 8385,
      "espread</w>": 8386,
      "Solving</w>": 8387,
      "rooted</w>": 8388,
      "poor</w>": 8389,
      "].</w>": 8390,
      "enders</w>": 8391,
      "joint</w>": 8392,
      "appropriately</w>": 8393,
      "AC</w>": 8394,
      "supportive</w>": 8395,
      "shifting</w>": 8396,
      "thousands</w>": 8397,
      "starts</w>": 8398,
      "reporting</w>": 8399,
      "tance</w>": 8400,
      "regression</w>": 8401,
      "AAAAAAAAAAAAAAAAAAAAAAAAAAAAAAAA": 8402,
      "Public</w>": 8403,
      "Environ": 8404,
      "enthusiasm</w>": 8405,
      "host</w>": 8406,
      "Guide</w>": 8407,
      "arate</w>": 8408,
      "actors</w>": 8409,
      "lose</w>": 8410,
      "formulas</w>": 8411,
      "zy</w>": 8412,
      "obs</w>": 8413,
      "Sched": 8414,
      "artificial</w>": 8415,
      "cash</w>": 8416,
      "tLS": 8417,
      "intim": 8418,
      "week": 8419,
      "hundre": 8420,
      "inform</w>": 8421,
      "nings</w>": 8422,
      "spirit</w>": 8423,
      "dishes</w>": 8424,
      "molecular</w>": 8425,
      "clarity</w>": 8426,
      "payment</w>": 8427,
      "Alternatively</w>": 8428,
      "Bey": 8429,
      "walls</w>": 8430,
      "daunting</w>": 8431,
      "outlined</w>": 8432,
      "execution</w>": 8433,
      "Back": 8434,
      "Mag": 8435,
      "keup</w>": 8436,
      "depic": 8437,
      "hit</w>": 8438,
      "differ</w>": 8439,
      "mistakes</w>": 8440,
      "widespread</w>": 8441,
      "Lever": 8442,
      "struggles</w>": 8443,
      "tom": 8444,
      "wall</w>": 8445,
      "frame</w>": 8446,
      "evenly</w>": 8447,
      "spati": 8448,
      "necessitates</w>": 8449,
      "inclusivity</w>": 8450,
      "Rom": 8451,
      "rant</w>": 8452,
      "datab": 8453,
      "organic</w>": 8454,
      "Navigating</w>": 8455,
      "operational</w>": 8456,
      "gaming</w>": 8457,
      "}+</w>": 8458,
      "perpendicular</w>": 8459,
      "Respon": 8460,
      "South</w>": 8461,
      "genous</w>": 8462,
      "coffee</w>": 8463,
      "overview</w>": 8464,
      "master</w>": 8465,
      "perceived</w>": 8466,
      "2014</w>": 8467,
      "icating</w>": 8468,
      "cham": 8469,
      "territ": 8470,
      "proficiency</w>": 8471,
      "concern</w>": 8472,
      "psychological</w>": 8473,
      "beta</w>": 8474,
      "protocols</w>": 8475,
      "interior</w>": 8476,
      "decades</w>": 8477,
      "facilities</w>": 8478,
      "surg": 8479,
      "equitable</w>": 8480,
      "flat</w>": 8481,
      "emic</w>": 8482,
      "exponent</w>": 8483,
      "drop</w>": 8484,
      "understood</w>": 8485,
      "Er": 8486,
      "erarch": 8487,
      "stars</w>": 8488,
      "bias</w>": 8489,
      "probabilities</w>": 8490,
      "acceleration</w>": 8491,
      "Sym": 8492,
      "ac</w>": 8493,
      "cohe": 8494,
      "Ed": 8495,
      "nor</w>": 8496,
      "distr": 8497,
      "competitors</w>": 8498,
      "Scenari": 8499,
      "Pay</w>": 8500,
      "basis</w>": 8501,
      "mit": 8502,
      "oming</w>": 8503,
      "constitu": 8504,
      "capit": 8505,
      "Challenges</w>": 8506,
      "moisture</w>": 8507,
      "sight</w>": 8508,
      "predict</w>": 8509,
      "valued</w>": 8510,
      "bar": 8511,
      "Bet": 8512,
      "High": 8513,
      "beginning</w>": 8514,
      ")/(</w>": 8515,
      "disparate</w>": 8516,
      "(\"</w>": 8517,
      "savings</w>": 8518,
      "funding</w>": 8519,
      "crimin": 8520,
      "emphasize</w>": 8521,
      "moral</w>": 8522,
      "Dep": 8523,
      "cool": 8524,
      "refine</w>": 8525,
      "promptly</w>": 8526,
      "legis": 8527,
      "cups</w>": 8528,
      "approached</w>": 8529,
      "remained</w>": 8530,
      "inspiring</w>": 8531,
      "gratitude</w>": 8532,
      "fire</w>": 8533,
      "mitigate</w>": 8534,
      "conducting</w>": 8535,
      "signifies</w>": 8536,
      "transforming</w>": 8537,
      "therapeu": 8538,
      "interpretations</w>": 8539,
      "Ho": 8540,
      "uality</w>": 8541,
      "Act</w>": 8542,
      "conclude</w>": 8543,
      "authenticity</w>": 8544,
      "creatures</w>": 8545,
      "pharmaceutical</w>": 8546,
      "exempl": 8547,
      "iso": 8548,
      "deepen</w>": 8549,
      "digenous</w>": 8550,
      "trigonometric</w>": 8551,
      "civil</w>": 8552,
      "digits</w>": 8553,
      "remote</w>": 8554,
      "showcasing</w>": 8555,
      "fits</w>": 8556,
      "stock</w>": 8557,
      "consult</w>": 8558,
      "lic</w>": 8559,
      "satisfy</w>": 8560,
      "foods</w>": 8561,
      "joining</w>": 8562,
      "bank</w>": 8563,
      "war</w>": 8564,
      "died</w>": 8565,
      "dio</w>": 8566,
      "targeting</w>": 8567,
      "experiencing</w>": 8568,
      "70</w>": 8569,
      "foundational</w>": 8570,
      "conservation</w>": 8571,
      "invest</w>": 8572,
      "DE": 8573,
      "VI</w>": 8574,
      "delves</w>": 8575,
      "Monitor</w>": 8576,
      "refining</w>": 8577,
      "Dra": 8578,
      "Vol": 8579,
      "cosine</w>": 8580,
      "articles</w>": 8581,
      "Cultural</w>": 8582,
      "recur": 8583,
      "minds</w>": 8584,
      "gathering</w>": 8585,
      "nonzero</w>": 8586,
      "architecture</w>": 8587,
      "Within</w>": 8588,
      "preced": 8589,
      "Beyond</w>": 8590,
      "Ms</w>": 8591,
      "print</w>": 8592,
      "Pyth": 8593,
      "kle</w>": 8594,
      "thoughtfully</w>": 8595,
      "Historical</w>": 8596,
      "agency</w>": 8597,
      "tensions</w>": 8598,
      "Grad": 8599,
      "volunte": 8600,
      "Opt</w>": 8601,
      "rising</w>": 8602,
      "reduction</w>": 8603,
      "rays</w>": 8604,
      "centers</w>": 8605,
      "beneficial</w>": 8606,
      "adjacent</w>": 8607,
      "erious</w>": 8608,
      "million</w>": 8609,
      "ouble</w>": 8610,
      "whe": 8611,
      "authority</w>": 8612,
      "paid</w>": 8613,
      "menu</w>": 8614,
      "Dig": 8615,
      "heigh": 8616,
      "interpreting</w>": 8617,
      "mort": 8618,
      "pass</w>": 8619,
      "lot</w>": 8620,
      "opens</w>": 8621,
      "linguistic</w>": 8622,
      "guiding</w>": 8623,
      "ampling</w>": 8624,
      "muscles</w>": 8625,
      "tangible</w>": 8626,
      "agreement</w>": 8627,
      "wonder</w>": 8628,
      "colleagues</w>": 8629,
      "reports</w>": 8630,
      "governments</w>": 8631,
      "solid": 8632,
      "2020</w>": 8633,
      "teachers</w>": 8634,
      "commonly</w>": 8635,
      "tradition</w>": 8636,
      "Rob": 8637,
      "ryp": 8638,
      "client</w>": 8639,
      "Bra": 8640,
      "manual</w>": 8641,
      "Provide</w>": 8642,
      "jection</w>": 8643,
      "ashing</w>": 8644,
      "Utilizing</w>": 8645,
      "sell</w>": 8646,
      "decimals</w>": 8647,
      "invent": 8648,
      "variety</w>": 8649,
      "thrive</w>": 8650,
      "vation</w>": 8651,
      "audio</w>": 8652,
      "armed</w>": 8653,
      "nurturing</w>": 8654,
      "constants</w>": 8655,
      "haz": 8656,
      "perpet": 8657,
      "vis</w>": 8658,
      "ports</w>": 8659,
      "extends</w>": 8660,
      "utility</w>": 8661,
      "entertainment</w>": 8662,
      "analytics</w>": 8663,
      "School</w>": 8664,
      "football</w>": 8665,
      "seamlessly</w>": 8666,
[...]
